#ifndef NETWORK_MODEL_H
#define NETWORK_MODEL_H

const unsigned int network_model_dim1 = 9768;

const unsigned char network_model[9768] = {
    0x20, 0x00, 0x00, 0x00, 0x54, 0x46, 0x4c, 0x33, 0x00, 0x00, 0x00, 0x00, 
    0x14, 0x00, 0x20, 0x00, 0x1c, 0x00, 0x18, 0x00, 0x14, 0x00, 0x10, 0x00, 
    0x0c, 0x00, 0x00, 0x00, 0x08, 0x00, 0x04, 0x00, 0x14, 0x00, 0x00, 0x00, 
    0x1c, 0x00, 0x00, 0x00, 0x90, 0x00, 0x00, 0x00, 0xe8, 0x00, 0x00, 0x00, 
    0xf0, 0x1d, 0x00, 0x00, 0x00, 0x1e, 0x00, 0x00, 0xb0, 0x25, 0x00, 0x00, 
    0x03, 0x00, 0x00, 0x00, 0x01, 0x00, 0x00, 0x00, 0x10, 0x00, 0x00, 0x00, 
    0x00, 0x00, 0x0a, 0x00, 0x10, 0x00, 0x0c, 0x00, 0x08, 0x00, 0x04, 0x00, 
    0x0a, 0x00, 0x00, 0x00, 0x0c, 0x00, 0x00, 0x00, 0x1c, 0x00, 0x00, 0x00, 
    0x38, 0x00, 0x00, 0x00, 0x0f, 0x00, 0x00, 0x00, 0x73, 0x65, 0x72, 0x76, 
    0x69, 0x6e, 0x67, 0x5f, 0x64, 0x65, 0x66, 0x61, 0x75, 0x6c, 0x74, 0x00, 
    0x01, 0x00, 0x00, 0x00, 0x04, 0x00, 0x00, 0x00, 0x98, 0xff, 0xff, 0xff, 
    0x0d, 0x00, 0x00, 0x00, 0x04, 0x00, 0x00, 0x00, 0x07, 0x00, 0x00, 0x00, 
    0x64, 0x65, 0x6e, 0x73, 0x65, 0x5f, 0x33, 0x00, 0x01, 0x00, 0x00, 0x00, 
    0x04, 0x00, 0x00, 0x00, 0xee, 0xe1, 0xff, 0xff, 0x04, 0x00, 0x00, 0x00, 
    0x0b, 0x00, 0x00, 0x00, 0x64, 0x65, 0x6e, 0x73, 0x65, 0x5f, 0x69, 0x6e, 
    0x70, 0x75, 0x74, 0x00, 0x02, 0x00, 0x00, 0x00, 0x34, 0x00, 0x00, 0x00, 
    0x04, 0x00, 0x00, 0x00, 0xdc, 0xff, 0xff, 0xff, 0x10, 0x00, 0x00, 0x00, 
    0x04, 0x00, 0x00, 0x00, 0x13, 0x00, 0x00, 0x00, 0x43, 0x4f, 0x4e, 0x56, 
    0x45, 0x52, 0x53, 0x49, 0x4f, 0x4e, 0x5f, 0x4d, 0x45, 0x54, 0x41, 0x44, 
    0x41, 0x54, 0x41, 0x00, 0x08, 0x00, 0x0c, 0x00, 0x08, 0x00, 0x04, 0x00, 
    0x08, 0x00, 0x00, 0x00, 0x0f, 0x00, 0x00, 0x00, 0x04, 0x00, 0x00, 0x00, 
    0x13, 0x00, 0x00, 0x00, 0x6d, 0x69, 0x6e, 0x5f, 0x72, 0x75, 0x6e, 0x74, 
    0x69, 0x6d, 0x65, 0x5f, 0x76, 0x65, 0x72, 0x73, 0x69, 0x6f, 0x6e, 0x00, 
    0x11, 0x00, 0x00, 0x00, 0x04, 0x1d, 0x00, 0x00, 0xfc, 0x1c, 0x00, 0x00, 
    0x6c, 0x1c, 0x00, 0x00, 0x5c, 0x14, 0x00, 0x00, 0xcc, 0x13, 0x00, 0x00, 
    0x7c, 0x13, 0x00, 0x00, 0x64, 0x13, 0x00, 0x00, 0x54, 0x12, 0x00, 0x00, 
    0xc4, 0x08, 0x00, 0x00, 0xb4, 0x00, 0x00, 0x00, 0xac, 0x00, 0x00, 0x00, 
    0xa4, 0x00, 0x00, 0x00, 0x9c, 0x00, 0x00, 0x00, 0x94, 0x00, 0x00, 0x00, 
    0x8c, 0x00, 0x00, 0x00, 0x6c, 0x00, 0x00, 0x00, 0x04, 0x00, 0x00, 0x00, 
    0xaa, 0xe2, 0xff, 0xff, 0x04, 0x00, 0x00, 0x00, 0x58, 0x00, 0x00, 0x00, 
    0x0c, 0x00, 0x00, 0x00, 0x08, 0x00, 0x0e, 0x00, 0x08, 0x00, 0x04, 0x00, 
    0x08, 0x00, 0x00, 0x00, 0x10, 0x00, 0x00, 0x00, 0x28, 0x00, 0x00, 0x00, 
    0x00, 0x00, 0x06, 0x00, 0x08, 0x00, 0x04, 0x00, 0x06, 0x00, 0x00, 0x00, 
    0x04, 0x00, 0x00, 0x00, 0x01, 0x00, 0x00, 0x00, 0xea, 0x03, 0x00, 0x00, 
    0x00, 0x00, 0x0a, 0x00, 0x10, 0x00, 0x0c, 0x00, 0x08, 0x00, 0x04, 0x00, 
    0x0a, 0x00, 0x00, 0x00, 0x02, 0x00, 0x00, 0x00, 0x02, 0x00, 0x00, 0x00, 
    0x04, 0x00, 0x00, 0x00, 0x06, 0x00, 0x00, 0x00, 0x32, 0x2e, 0x31, 0x34, 
    0x2e, 0x31, 0x00, 0x00, 0x0e, 0xe3, 0xff, 0xff, 0x04, 0x00, 0x00, 0x00, 
    0x10, 0x00, 0x00, 0x00, 0x32, 0x2e, 0x33, 0x2e, 0x30, 0x00, 0x00, 0x00, 
    0x00, 0x00, 0x00, 0x00, 0x00, 0x00, 0x00, 0x00, 0x2c, 0xdc, 0xff, 0xff, 
    0x30, 0xdc, 0xff, 0xff, 0x34, 0xdc, 0xff, 0xff, 0x38, 0xdc, 0xff, 0xff, 
    0x3c, 0xdc, 0xff, 0xff, 0x3e, 0xe3, 0xff, 0xff, 0x04, 0x00, 0x00, 0x00, 
    0x00, 0x08, 0x00, 0x00, 0xf7, 0xe6, 0x07, 0x0f, 0x0e, 0xee, 0x12, 0x02, 
    0xfd, 0xe6, 0x17, 0x11, 0xd7, 0xf2, 0x06, 0x1c, 0xf9, 0x18, 0xe8, 0xe8, 
    0x0d, 0xf4, 0xf8, 0xaf, 0x02, 0x04, 0x17, 0xd8, 0xd1, 0x09, 0xfd, 0xe6, 
    0xfe, 0x19, 0xfc, 0xef, 0x0a, 0xf7, 0x12, 0xf9, 0x00, 0xde, 0xf1, 0xf1, 
    0xec, 0x0d, 0xf7, 0xde, 0xf8, 0x12, 0xed, 0x15, 0x40, 0xf2, 0x17, 0x1f, 
    0x09, 0x0f, 0x21, 0xeb, 0x24, 0x15, 0xf3, 0x18, 0xf1, 0x06, 0x1c, 0xf8, 
    0x10, 0xf1, 0xf2, 0xe2, 0x10, 0x29, 0xf7, 0xe0, 0xf8, 0xfa, 0xe0, 0x17, 
    0x17, 0xf7, 0x2b, 0xf8, 0xe2, 0xfb, 0xe5, 0x07, 0x01, 0xa4, 0x1d, 0x19, 
    0x42, 0xd4, 0xe9, 0x2c, 0xea, 0xc6, 0xcf, 0xf1, 0xef, 0xf9, 0xe7, 0x20, 
    0x10, 0x13, 0x02, 0x34, 0xc9, 0xfd, 0xfa, 0x14, 0xd8, 0xe1, 0xfa, 0x13, 
    0xe2, 0x23, 0xfb, 0x03, 0x1f, 0x12, 0x08, 0xeb, 0x08, 0xf7, 0x04, 0xe3, 
    0xe9, 0x2a, 0x02, 0xf4, 0x01, 0x0a, 0x08, 0x56, 0xfc, 0xf0, 0x09, 0x0f, 
    0xe9, 0xfa, 0xc3, 0x41, 0x04, 0x1c, 0xfd, 0x13, 0xf4, 0x12, 0xdd, 0x25, 
    0x3d, 0xe1, 0xf4, 0x09, 0x43, 0xf3, 0xda, 0x05, 0xb5, 0x29, 0xcc, 0x18, 
    0xc5, 0xc4, 0x23, 0x25, 0x0c, 0x0b, 0x15, 0x2b, 0xe9, 0xef, 0x00, 0x19, 
    0xf8, 0x04, 0xab, 0x25, 0xf2, 0xfa, 0x0a, 0xe5, 0x12, 0xcf, 0x29, 0xfc, 
    0x25, 0xdd, 0xe5, 0xd3, 0xcb, 0xdf, 0xf9, 0x0b, 0xdb, 0x1e, 0x25, 0xf9, 
    0x0c, 0xe4, 0xf2, 0xb7, 0xe2, 0xfb, 0xff, 0xe6, 0xfd, 0x11, 0x15, 0xf3, 
    0x0e, 0xfb, 0x28, 0xf0, 0x09, 0x0b, 0xfe, 0xe7, 0xdd, 0x1d, 0x03, 0x04, 
    0x43, 0x05, 0x1c, 0x29, 0x00, 0xf7, 0x15, 0x12, 0x16, 0x03, 0xf1, 0xf2, 
    0x0d, 0xe4, 0xd5, 0xe6, 0x18, 0x20, 0x49, 0x17, 0x6d, 0xef, 0x1b, 0x3b, 
    0xed, 0xcf, 0x2b, 0x14, 0xec, 0x18, 0x0d, 0x1a, 0xed, 0xd6, 0xeb, 0x12, 
    0xf5, 0x09, 0xec, 0x0c, 0xf9, 0xd2, 0x07, 0x17, 0x0b, 0x37, 0x10, 0x1e, 
    0x18, 0xfc, 0x0c, 0x1f, 0x01, 0xe4, 0x2b, 0xbe, 0x17, 0xfd, 0xea, 0xf7, 
    0xd9, 0x2f, 0x07, 0x14, 0x35, 0xf8, 0x1c, 0xee, 0xee, 0x0c, 0xe5, 0x0f, 
    0x02, 0xff, 0x0d, 0x13, 0xf5, 0xe0, 0xee, 0xf3, 0x30, 0x03, 0x0f, 0xf7, 
    0x28, 0xed, 0xe5, 0xfb, 0x10, 0xe3, 0xf3, 0x05, 0xe7, 0x19, 0x12, 0x28, 
    0x11, 0xf4, 0x16, 0xeb, 0xf2, 0x9d, 0xb3, 0xd9, 0xf4, 0x17, 0xfc, 0x3a, 
    0xe9, 0xf6, 0x2d, 0xdf, 0xca, 0x0c, 0x0c, 0xe9, 0xfd, 0xd8, 0xfa, 0xee, 
    0xcb, 0xf1, 0xff, 0xfc, 0xd4, 0xf4, 0x17, 0xef, 0x00, 0xf2, 0xe8, 0xe6, 
    0xf4, 0xf6, 0x05, 0x18, 0xf3, 0xf4, 0x1a, 0xe1, 0x0f, 0x1d, 0x07, 0xfc, 
    0xdc, 0xeb, 0xc0, 0xef, 0xff, 0x23, 0xf1, 0xdd, 0x0a, 0x21, 0x2d, 0x03, 
    0x12, 0xdd, 0xf4, 0xec, 0xee, 0xde, 0x07, 0x36, 0xf8, 0x14, 0xfd, 0x06, 
    0xd8, 0x1c, 0x12, 0xec, 0xf1, 0xfb, 0x13, 0x06, 0xfc, 0x01, 0xfe, 0x13, 
    0x01, 0xd3, 0xfc, 0x0c, 0x0f, 0x11, 0x06, 0xf0, 0xac, 0x17, 0xfc, 0xf0, 
    0x23, 0x2d, 0x29, 0xe5, 0xf3, 0x14, 0x1c, 0xd7, 0xe8, 0xdc, 0xed, 0xe3, 
    0xff, 0xe8, 0xb4, 0xf8, 0x42, 0xf9, 0x33, 0x25, 0x19, 0xf5, 0x19, 0x1b, 
    0x26, 0xa0, 0xf7, 0x15, 0xee, 0x23, 0x22, 0x0f, 0xfd, 0xe6, 0x15, 0x21, 
    0x00, 0xfe, 0xfd, 0x83, 0x1a, 0x04, 0x20, 0x22, 0x1b, 0xf8, 0xf4, 0xd7, 
    0x3f, 0x2a, 0x04, 0x2b, 0xed, 0xf0, 0x0a, 0xe5, 0x00, 0x84, 0x3f, 0xfe, 
    0xeb, 0xdd, 0xdf, 0x07, 0x04, 0xd0, 0x09, 0xfd, 0x1c, 0x00, 0xc3, 0x2f, 
    0x04, 0x18, 0x0f, 0xcf, 0xbe, 0xf4, 0xe7, 0xe1, 0xf5, 0xf1, 0xe5, 0xd3, 
    0xad, 0x19, 0x81, 0x16, 0x19, 0xfd, 0xd1, 0xf6, 0xcc, 0x12, 0xec, 0xf7, 
    0xff, 0xe0, 0xe2, 0x0e, 0xe3, 0x04, 0xf2, 0x03, 0xe0, 0x05, 0xea, 0xfd, 
    0xfc, 0xfb, 0x07, 0xe3, 0xf6, 0xfc, 0xf9, 0xe3, 0xfe, 0x05, 0xf0, 0xf9, 
    0xf2, 0xff, 0x0a, 0x16, 0xf2, 0x0d, 0xee, 0x0a, 0x05, 0xfc, 0xe6, 0xfa, 
    0x09, 0xe7, 0xe6, 0xe4, 0xe8, 0xda, 0xf8, 0xdf, 0x0a, 0xe8, 0x11, 0xec, 
    0xfe, 0xe7, 0x0c, 0x01, 0xe4, 0xe2, 0x12, 0x04, 0xef, 0xe1, 0xef, 0x03, 
    0x07, 0xf2, 0xd5, 0x02, 0xfb, 0xe0, 0xf4, 0xca, 0x29, 0x02, 0xd9, 0x58, 
    0x04, 0x37, 0x23, 0x33, 0x22, 0x07, 0xd9, 0x1c, 0x0d, 0x12, 0xf1, 0x1c, 
    0xfd, 0xd3, 0xf1, 0x02, 0x2e, 0xdf, 0x06, 0x07, 0xdd, 0xf7, 0xd8, 0xe4, 
    0xa9, 0xea, 0x2f, 0xf5, 0x1c, 0xee, 0xfb, 0x05, 0xef, 0xf5, 0xfd, 0x1a, 
    0xf1, 0xec, 0xf2, 0x0b, 0xdf, 0x09, 0xbf, 0xf6, 0xba, 0xf1, 0xe3, 0xf8, 
    0xd1, 0x0e, 0xe9, 0x32, 0xfa, 0xdd, 0xe9, 0xed, 0xf0, 0xd7, 0xe4, 0x05, 
    0x19, 0x0e, 0x0d, 0x26, 0x21, 0xf7, 0xf5, 0x35, 0x13, 0x18, 0xaf, 0x3c, 
    0x25, 0xeb, 0x15, 0x2e, 0x00, 0xe5, 0xd9, 0xfe, 0xf3, 0xce, 0x38, 0xf3, 
    0xd1, 0xa7, 0xe6, 0x2a, 0xe5, 0xca, 0xf3, 0x06, 0xfd, 0x1b, 0xd2, 0x34, 
    0xe0, 0x11, 0xe5, 0xed, 0xe6, 0x1d, 0xd7, 0x05, 0xcd, 0x04, 0xe1, 0xec, 
    0xb3, 0xeb, 0xf4, 0xfa, 0xf7, 0x2d, 0xdc, 0xf0, 0xea, 0x16, 0xfd, 0xf8, 
    0x26, 0xc6, 0x11, 0x22, 0xff, 0xe3, 0xfe, 0x2e, 0xf9, 0x1a, 0xe0, 0x22, 
    0xf5, 0x23, 0x0c, 0xd5, 0x10, 0x06, 0x03, 0xd9, 0x08, 0x12, 0x29, 0x1f, 
    0xc7, 0x0e, 0x26, 0x08, 0x0d, 0xf1, 0xd7, 0x0f, 0x2e, 0x25, 0xfb, 0xff, 
    0xec, 0x27, 0xfa, 0x00, 0x18, 0xbc, 0xf3, 0x0f, 0xfb, 0xe3, 0xdf, 0xdc, 
    0x03, 0xc8, 0xfc, 0xf0, 0x1c, 0xf4, 0x08, 0x1a, 0x14, 0xfe, 0x27, 0x07, 
    0xdb, 0xfb, 0xe4, 0x0e, 0xf5, 0x10, 0x00, 0xec, 0x19, 0xcb, 0xed, 0x1a, 
    0xc9, 0x04, 0x05, 0x0e, 0xf7, 0xfd, 0x29, 0x06, 0xd3, 0xec, 0xfd, 0x18, 
    0xf7, 0x16, 0x25, 0xd9, 0x26, 0x17, 0xba, 0xde, 0x49, 0xed, 0xfb, 0xc7, 
    0xd4, 0x1c, 0x09, 0xd0, 0xc7, 0xad, 0x0b, 0x0a, 0x0b, 0xf1, 0xfe, 0x20, 
    0x24, 0x09, 0x04, 0xdf, 0xd8, 0xee, 0xc8, 0xfb, 0xfd, 0xd9, 0x2a, 0x02, 
    0x14, 0xd3, 0xf6, 0x37, 0x07, 0xd0, 0x15, 0xd2, 0xfa, 0x0d, 0x08, 0xd1, 
    0xe7, 0xb4, 0xfa, 0x07, 0x3b, 0xc7, 0x1c, 0x44, 0xdc, 0xfd, 0x18, 0xe9, 
    0xf6, 0x25, 0x1a, 0xcc, 0xf5, 0xe0, 0x1a, 0xf9, 0xf6, 0x12, 0xcd, 0x18, 
    0xf4, 0x31, 0xfd, 0x03, 0x2a, 0x15, 0x16, 0x09, 0x27, 0xfb, 0x11, 0xfb, 
    0x2f, 0xf0, 0x09, 0xfb, 0x09, 0x0e, 0x0a, 0xf0, 0x12, 0xe0, 0x3c, 0xbc, 
    0x4b, 0xf1, 0x05, 0x23, 0xf0, 0x2e, 0x25, 0x08, 0x35, 0xfd, 0xe2, 0x12, 
    0x0a, 0x09, 0xe3, 0x0e, 0xde, 0x02, 0x11, 0xc3, 0xed, 0x0f, 0x1e, 0x3d, 
    0x05, 0x27, 0xed, 0xe8, 0x05, 0xef, 0xfe, 0x05, 0x14, 0xeb, 0xf3, 0x12, 
    0xbf, 0xb6, 0x18, 0x18, 0xf0, 0x13, 0xe2, 0xef, 0xe1, 0x0d, 0x1a, 0xd1, 
    0xf0, 0xf6, 0xb7, 0x15, 0x1a, 0x1e, 0x2e, 0xaf, 0xb9, 0xf7, 0x19, 0xff, 
    0xf3, 0xcd, 0x1d, 0xfb, 0xed, 0xe3, 0xc9, 0xdd, 0x1f, 0x10, 0xc5, 0x23, 
    0xde, 0xf6, 0xd0, 0x1d, 0xf4, 0x2f, 0x20, 0xba, 0xeb, 0xe5, 0xce, 0x45, 
    0xe8, 0x19, 0x1f, 0x14, 0xf3, 0xff, 0xe2, 0x24, 0x17, 0x08, 0x02, 0xec, 
    0x08, 0x28, 0xf1, 0xfd, 0x03, 0x08, 0xf4, 0xdc, 0x32, 0xfd, 0xeb, 0xc6, 
    0xe5, 0xff, 0x19, 0x2b, 0xf1, 0x20, 0x43, 0x07, 0x0f, 0x08, 0xf9, 0x23, 
    0x14, 0xe4, 0x23, 0x12, 0xfa, 0x0b, 0x0e, 0x01, 0xda, 0xe9, 0x0d, 0xf2, 
    0xe5, 0xf9, 0xfe, 0x1c, 0x30, 0xbc, 0xee, 0xdb, 0xed, 0xd9, 0x19, 0x01, 
    0x13, 0x0f, 0x1c, 0x34, 0x11, 0x11, 0x0f, 0x2c, 0xf9, 0x11, 0xed, 0xff, 
    0x11, 0xf1, 0xe4, 0xf8, 0x24, 0x12, 0xf1, 0x12, 0xdd, 0xfd, 0x0c, 0x09, 
    0xd3, 0xef, 0xf1, 0xf1, 0xfc, 0xd2, 0x00, 0x27, 0x00, 0x0d, 0xe1, 0x16, 
    0xe3, 0x0f, 0x02, 0xbe, 0x0c, 0xe1, 0xfe, 0xf8, 0xd3, 0xf3, 0xd0, 0xe3, 
    0xc1, 0x17, 0xf2, 0xca, 0xde, 0x22, 0xa6, 0x2a, 0x0c, 0x1a, 0x01, 0xf5, 
    0xe7, 0xe1, 0xe8, 0x0d, 0x19, 0x29, 0xfe, 0x23, 0x1d, 0x20, 0x0b, 0xf0, 
    0xe7, 0xe9, 0x09, 0x02, 0x0d, 0xf2, 0xf9, 0xeb, 0xec, 0x1a, 0xc1, 0x20, 
    0x31, 0xff, 0x0b, 0x1e, 0x2a, 0xd5, 0xf2, 0x03, 0xc5, 0xee, 0xc9, 0x06, 
    0xe7, 0xf9, 0x28, 0xfe, 0x33, 0x03, 0xdb, 0x2a, 0x03, 0xea, 0x09, 0x1c, 
    0xe8, 0x10, 0xcc, 0x02, 0xa3, 0xe4, 0xff, 0xe6, 0x02, 0x21, 0xed, 0xdf, 
    0x19, 0x0f, 0xba, 0xfc, 0xf6, 0x18, 0xee, 0xe1, 0xf7, 0xf8, 0xe8, 0x31, 
    0xee, 0x07, 0xf9, 0x14, 0x2b, 0x0c, 0xf7, 0x25, 0xf9, 0xf0, 0x14, 0x0e, 
    0xed, 0x0d, 0x13, 0x0f, 0x33, 0xe3, 0xd5, 0x1d, 0x52, 0xe9, 0x17, 0xfe, 
    0xcc, 0x2a, 0xf8, 0x09, 0xce, 0xe4, 0x19, 0x04, 0xf9, 0xef, 0xee, 0x35, 
    0x12, 0xf9, 0x2a, 0x23, 0xcc, 0xff, 0xd1, 0xfd, 0xfa, 0xcc, 0xf8, 0xe4, 
    0x12, 0xe5, 0x2a, 0xeb, 0x33, 0xa2, 0xfd, 0xf4, 0x04, 0xf4, 0x03, 0x01, 
    0xea, 0x00, 0x17, 0xe1, 0x0d, 0xf8, 0x0d, 0xcf, 0xd6, 0xfc, 0x14, 0xbe, 
    0x08, 0x0b, 0xde, 0xe5, 0x12, 0x27, 0xf8, 0xde, 0xea, 0xec, 0xf1, 0xf5, 
    0x15, 0x35, 0x13, 0xfe, 0x3d, 0x46, 0x24, 0x07, 0xe7, 0xe8, 0x17, 0xe2, 
    0x27, 0x0d, 0xe1, 0xf2, 0xce, 0xff, 0xd3, 0xea, 0x13, 0x0c, 0x15, 0xe7, 
    0x37, 0x17, 0xe1, 0x32, 0x1f, 0x19, 0xf1, 0x2d, 0xff, 0x13, 0x1c, 0x15, 
    0xf5, 0x07, 0xe5, 0xd8, 0xfe, 0xf5, 0x03, 0xc2, 0xf9, 0x11, 0x16, 0x1f, 
    0x0d, 0x10, 0x20, 0xef, 0xc8, 0xe8, 0x11, 0xf4, 0x2a, 0x05, 0xca, 0xfe, 
    0xb6, 0x18, 0xdd, 0x38, 0xee, 0xff, 0x01, 0xe8, 0xf3, 0xe5, 0x1a, 0xc7, 
    0x0a, 0xe5, 0x0c, 0x13, 0xd7, 0x02, 0x10, 0x96, 0x24, 0xf8, 0x24, 0x02, 
    0x24, 0xf4, 0x10, 0x11, 0xfc, 0x28, 0x12, 0x1c, 0xc9, 0x23, 0xef, 0xe7, 
    0xf5, 0xb0, 0xf3, 0x28, 0xfc, 0xfe, 0xf8, 0xe4, 0x02, 0xf1, 0x1a, 0xfb, 
    0x0b, 0xfd, 0xf1, 0x37, 0xea, 0x15, 0xb3, 0xe8, 0x10, 0x23, 0xc6, 0xd6, 
    0xf1, 0xf1, 0x04, 0x3c, 0x1a, 0x10, 0xe6, 0xee, 0xed, 0x20, 0xf9, 0xff, 
    0xfb, 0xe7, 0xf2, 0x03, 0x31, 0x12, 0xc6, 0x0c, 0xdc, 0xe6, 0xf1, 0x22, 
    0x09, 0xeb, 0x12, 0x15, 0xe4, 0xf0, 0xfe, 0xb8, 0x1b, 0x0a, 0x33, 0xf0, 
    0x22, 0xdc, 0xf6, 0xcc, 0x14, 0x05, 0x1a, 0x16, 0xfe, 0xc9, 0xfe, 0x1c, 
    0x0c, 0xc1, 0x08, 0xdc, 0x11, 0xf1, 0xfb, 0x24, 0xf2, 0xf5, 0xe2, 0xf0, 
    0x18, 0x04, 0xc5, 0xfb, 0x16, 0x13, 0x20, 0x20, 0xdf, 0x1e, 0xe0, 0xd8, 
    0x0a, 0xe3, 0x01, 0xf8, 0x33, 0x44, 0x10, 0xf1, 0x09, 0xf5, 0x32, 0x15, 
    0xe3, 0x15, 0xef, 0x23, 0xe7, 0xfb, 0xe7, 0x16, 0x25, 0xef, 0x1c, 0xc1, 
    0x2a, 0xec, 0x00, 0xeb, 0x01, 0x2e, 0x12, 0x16, 0xff, 0x2e, 0x07, 0x0b, 
    0x00, 0x25, 0xfd, 0xd7, 0xdd, 0x25, 0x1d, 0xa7, 0xe4, 0xd3, 0x1f, 0xab, 
    0x25, 0xd4, 0x03, 0xc4, 0x13, 0xdb, 0x25, 0xcc, 0x14, 0xe7, 0xd5, 0x07, 
    0xd5, 0x3e, 0xf0, 0xf7, 0xf2, 0x27, 0xf5, 0xde, 0x07, 0x46, 0xfa, 0xc6, 
    0xef, 0xce, 0x05, 0x07, 0xe6, 0xdd, 0x01, 0xc2, 0xef, 0x2a, 0x18, 0xd9, 
    0xe7, 0xf1, 0x2f, 0xfa, 0x47, 0x05, 0xe2, 0xdd, 0x01, 0x16, 0x1d, 0x00, 
    0xe5, 0x01, 0x0b, 0xf1, 0x24, 0x0b, 0x11, 0xb4, 0x10, 0x0c, 0xdc, 0x52, 
    0x05, 0xf7, 0x01, 0x04, 0x01, 0xf1, 0xe5, 0x12, 0x02, 0x13, 0x05, 0x00, 
    0xfd, 0xec, 0xe7, 0x0a, 0x1d, 0x1b, 0xbc, 0x1f, 0x0b, 0x0f, 0xf8, 0xfc, 
    0xfa, 0x18, 0xd3, 0x08, 0xe6, 0xe2, 0x18, 0x13, 0xfd, 0x04, 0xfa, 0x20, 
    0x08, 0x0b, 0x09, 0xf7, 0xe5, 0x0c, 0xd3, 0x0c, 0xf1, 0x19, 0x3c, 0xd4, 
    0x18, 0x29, 0x13, 0xf4, 0x37, 0xc8, 0xef, 0x1d, 0xec, 0x02, 0xf4, 0xde, 
    0x00, 0x11, 0x16, 0xf1, 0xf6, 0xe9, 0x01, 0xed, 0x08, 0xee, 0xfb, 0x0b, 
    0xde, 0xf9, 0xe1, 0x01, 0xe4, 0xf6, 0xef, 0xe2, 0x0f, 0xf4, 0xde, 0x0d, 
    0x0b, 0xf1, 0xe9, 0xe9, 0x11, 0xfe, 0xf2, 0x0d, 0xfd, 0x18, 0x0b, 0x0b, 
    0x06, 0xf9, 0xef, 0x06, 0x05, 0xf1, 0xe1, 0xf4, 0xeb, 0xf2, 0xf8, 0xe9, 
    0x13, 0xd5, 0xed, 0xe0, 0xeb, 0x01, 0xd0, 0xe3, 0xf9, 0x13, 0x0f, 0xfb, 
    0x14, 0x08, 0x11, 0xf0, 0xdb, 0x22, 0x14, 0x21, 0xef, 0x15, 0xef, 0x0a, 
    0x16, 0x0d, 0xe2, 0xdd, 0xd6, 0xf4, 0x2f, 0x0d, 0x17, 0xee, 0xfe, 0xd9, 
    0x10, 0x07, 0x95, 0x09, 0x1d, 0xce, 0x12, 0xeb, 0x01, 0x21, 0xe8, 0xf5, 
    0xda, 0xf0, 0x21, 0xed, 0xf2, 0xfd, 0x9c, 0x3a, 0xfc, 0xf0, 0xf1, 0xfa, 
    0xea, 0xfe, 0x1f, 0xfc, 0x35, 0x09, 0x0f, 0xfd, 0x17, 0xd3, 0x09, 0x17, 
    0xe7, 0xd1, 0x2c, 0xfa, 0xef, 0x14, 0xf9, 0xd3, 0x09, 0xfe, 0x02, 0x16, 
    0xdf, 0xdc, 0xf9, 0x28, 0x0d, 0x12, 0x16, 0xf5, 0xfe, 0x2d, 0xe7, 0xff, 
    0x01, 0x1a, 0x17, 0x07, 0x08, 0xe6, 0xfd, 0x1a, 0x15, 0xe9, 0x01, 0x05, 
    0xf9, 0x3c, 0x0b, 0x24, 0xf6, 0x0f, 0x11, 0x33, 0x28, 0xf8, 0x03, 0x12, 
    0xdb, 0x0f, 0x21, 0x16, 0xfa, 0x09, 0x11, 0x12, 0x2a, 0xf8, 0xf4, 0x1e, 
    0x13, 0xfe, 0x2e, 0x06, 0x25, 0x01, 0x0d, 0x1f, 0xfd, 0xea, 0xdd, 0x02, 
    0x19, 0x01, 0x19, 0xdf, 0xec, 0xd1, 0xf1, 0xe4, 0xe9, 0x09, 0x0c, 0xe1, 
    0x07, 0x14, 0xdc, 0x20, 0x1c, 0x18, 0xfc, 0x20, 0xe4, 0x25, 0xf6, 0x14, 
    0xcd, 0x20, 0x0f, 0x16, 0x31, 0x2d, 0x00, 0x0d, 0x19, 0x15, 0x13, 0x1a, 
    0x0e, 0xfb, 0x0f, 0xce, 0xdb, 0x13, 0xfc, 0xd8, 0x16, 0x02, 0xed, 0x0c, 
    0x47, 0xfc, 0xdb, 0x19, 0xee, 0xf9, 0x20, 0xfc, 0xeb, 0x01, 0x1a, 0x33, 
    0x00, 0xc4, 0xfb, 0x21, 0xf6, 0xe6, 0x09, 0x00, 0x1a, 0xfb, 0x0a, 0x04, 
    0xf5, 0x19, 0x08, 0x0f, 0x07, 0xed, 0xea, 0x09, 0xfd, 0xe2, 0x0e, 0xe4, 
    0xe8, 0x17, 0x22, 0xfe, 0xdc, 0x07, 0x20, 0x1c, 0x2e, 0x21, 0x1d, 0x30, 
    0xeb, 0xff, 0x13, 0x2c, 0x15, 0xd8, 0xcf, 0x07, 0xf5, 0xef, 0xea, 0xd1, 
    0x36, 0xe8, 0x3c, 0xf8, 0x51, 0xe7, 0x14, 0x2b, 0xf8, 0x03, 0x03, 0x00, 
    0xfc, 0x02, 0xfa, 0x2b, 0xe0, 0x0c, 0xfa, 0x0f, 0xfd, 0xee, 0x04, 0x44, 
    0xf6, 0x03, 0x06, 0xd9, 0x08, 0x0b, 0xd0, 0x1c, 0xab, 0xee, 0x23, 0x15, 
    0x0a, 0xec, 0xd6, 0x0e, 0x14, 0xd8, 0x14, 0x08, 0x38, 0xdd, 0xf5, 0x26, 
    0xb4, 0xeb, 0xba, 0x0e, 0xe4, 0xf2, 0x17, 0x29, 0x18, 0x29, 0xf4, 0x11, 
    0xd2, 0x04, 0xf9, 0x20, 0xdb, 0xd1, 0x04, 0xf0, 0xe9, 0x0a, 0xf7, 0xec, 
    0x10, 0x06, 0xf3, 0xdc, 0x19, 0x27, 0x01, 0xfd, 0xea, 0x00, 0x03, 0xfa, 
    0xed, 0xf6, 0xec, 0x24, 0xfc, 0x09, 0x10, 0xf7, 0xd2, 0xf5, 0x39, 0x05, 
    0x0c, 0xf6, 0xe5, 0xe3, 0x04, 0x2b, 0xee, 0xea, 0xe9, 0x0d, 0x2e, 0xe3, 
    0xf7, 0x38, 0xb8, 0x04, 0x20, 0x3a, 0xef, 0x06, 0x01, 0xfd, 0xe6, 0xb8, 
    0xfb, 0xf7, 0x09, 0xff, 0xd0, 0xf8, 0x1c, 0xee, 0xea, 0x0b, 0xfa, 0xde, 
    0x52, 0xf3, 0x1a, 0x27, 0x09, 0xab, 0x1c, 0xfb, 0x15, 0x25, 0x15, 0xf7, 
    0x4a, 0xeb, 0xff, 0xff, 0x04, 0x00, 0x00, 0x00, 0x80, 0x09, 0x00, 0x00, 
    0xf1, 0x00, 0x03, 0x01, 0x00, 0x8f, 0x05, 0xf7, 0xf1, 0xfa, 0x0a, 0x06, 
    0x5c, 0x07, 0x10, 0x16, 0x16, 0x1b, 0xf2, 0x18, 0x22, 0x1c, 0x03, 0xf6, 
    0xfc, 0x08, 0xf8, 0xe8, 0x03, 0x12, 0x05, 0x12, 0xd1, 0x09, 0xfb, 0xe4, 
    0x0d, 0xf6, 0xee, 0x11, 0x1e, 0x10, 0x0a, 0xe8, 0x27, 0x0a, 0xdf, 0xd6, 
    0x04, 0x03, 0xe7, 0x0a, 0xef, 0xf3, 0x02, 0xf1, 0x10, 0x0b, 0x1c, 0x23, 
    0x1b, 0x16, 0xdd, 0x0d, 0xf2, 0x17, 0xfb, 0xde, 0xfd, 0xed, 0x0c, 0x30, 
    0x46, 0x1d, 0x1a, 0x0c, 0xf5, 0x10, 0x04, 0x12, 0x25, 0xdf, 0x24, 0xf5, 
    0xdf, 0x1d, 0x04, 0xfe, 0x06, 0x09, 0x01, 0x11, 0x01, 0x19, 0x28, 0x07, 
    0xed, 0x00, 0xf5, 0xfd, 0x0e, 0xfc, 0x13, 0xf3, 0x15, 0x09, 0x0b, 0x04, 
    0xfd, 0xee, 0xf2, 0x0e, 0xff, 0x01, 0x03, 0x09, 0xd5, 0x02, 0xb4, 0xfe, 
    0xfa, 0x06, 0xed, 0x09, 0x07, 0x1b, 0xfe, 0x0c, 0xfb, 0xee, 0x15, 0x10, 
    0xe5, 0xd6, 0x00, 0x07, 0x12, 0xee, 0x07, 0x0a, 0xf3, 0xc3, 0xfd, 0x17, 
    0x05, 0x03, 0xe5, 0xfb, 0xf4, 0xf6, 0x0a, 0x29, 0x14, 0x08, 0x13, 0x13, 
    0x0f, 0xff, 0x1d, 0xf7, 0x22, 0x09, 0x0b, 0x1c, 0xac, 0x1f, 0xf4, 0xfe, 
    0x18, 0x19, 0x0b, 0x08, 0xfb, 0x1f, 0x05, 0xf1, 0xf6, 0x1c, 0xe4, 0x0b, 
    0xe9, 0x1f, 0xe1, 0xf8, 0x18, 0x12, 0xf3, 0xfe, 0xe5, 0x00, 0x12, 0xf0, 
    0xfa, 0x14, 0x1b, 0x17, 0x15, 0xec, 0xe5, 0xdc, 0x0b, 0xf8, 0xd5, 0x18, 
    0xfa, 0xfc, 0xf5, 0x0d, 0x03, 0xe0, 0xf3, 0xfe, 0x01, 0xf5, 0xec, 0xfd, 
    0xfc, 0x11, 0x1f, 0xf5, 0x02, 0x2f, 0x14, 0xee, 0xed, 0xe4, 0xe4, 0x18, 
    0x02, 0x0b, 0x0c, 0x05, 0x0e, 0xb1, 0xe6, 0xc3, 0xed, 0xf1, 0x06, 0x17, 
    0x6a, 0xd6, 0xf5, 0xe5, 0x05, 0xf5, 0xe1, 0xaf, 0xf1, 0xf3, 0xf4, 0xea, 
    0xf5, 0xfd, 0xfc, 0xed, 0x15, 0x12, 0x0b, 0xfd, 0xfd, 0xfa, 0x02, 0xf2, 
    0x0e, 0x15, 0xd2, 0xdb, 0xff, 0xfc, 0xfe, 0xc8, 0x14, 0xf8, 0xd2, 0xce, 
    0xe1, 0xe6, 0xf3, 0x08, 0xcf, 0xe2, 0xd2, 0x08, 0x0b, 0x1c, 0x09, 0x15, 
    0x02, 0x2e, 0x0e, 0xf8, 0x03, 0x2f, 0x02, 0xdc, 0xfd, 0x0c, 0xff, 0x1a, 
    0x30, 0x04, 0x20, 0x3b, 0x0d, 0x19, 0x10, 0x0c, 0x03, 0x40, 0xf5, 0xf7, 
    0x29, 0xf3, 0xeb, 0x13, 0xc6, 0x07, 0x0a, 0xec, 0x16, 0x19, 0xfe, 0x1a, 
    0x04, 0xf4, 0xee, 0xef, 0x0d, 0x07, 0x0b, 0xde, 0x03, 0x0c, 0xe9, 0xf1, 
    0x1a, 0x14, 0x0d, 0x09, 0x00, 0x03, 0x16, 0xe0, 0xf6, 0x08, 0xe9, 0x2f, 
    0x23, 0x0c, 0x14, 0x29, 0x02, 0x08, 0xc7, 0xfe, 0x01, 0x0e, 0x06, 0xfd, 
    0x21, 0x04, 0xdf, 0xfa, 0x05, 0xed, 0xfb, 0xfa, 0xfa, 0xf8, 0x25, 0x2a, 
    0x1c, 0xfb, 0x03, 0xdb, 0xe3, 0x05, 0xe8, 0xde, 0xf5, 0xef, 0xf8, 0x1e, 
    0x02, 0x01, 0x0b, 0x10, 0x07, 0x1c, 0xe8, 0xf5, 0xea, 0xf5, 0x09, 0xf9, 
    0xf6, 0x09, 0x1f, 0x10, 0xed, 0xfe, 0xfe, 0x05, 0x01, 0x1e, 0x34, 0x22, 
    0x0a, 0x0c, 0x09, 0xf2, 0x03, 0xee, 0x04, 0xf3, 0x02, 0x12, 0x05, 0xff, 
    0xfe, 0x00, 0xf5, 0xe4, 0xe1, 0x0e, 0x0d, 0xe7, 0xf2, 0x05, 0xf8, 0xe5, 
    0x04, 0x10, 0x0a, 0xe2, 0x33, 0x3c, 0x0e, 0x1b, 0x0a, 0x23, 0x17, 0xf1, 
    0xf8, 0x1f, 0x38, 0x0e, 0xe1, 0x00, 0xf9, 0x11, 0x00, 0x22, 0x28, 0x0e, 
    0xd7, 0x17, 0x09, 0x12, 0xee, 0x14, 0x04, 0x07, 0xff, 0x1e, 0xec, 0xfb, 
    0x06, 0xfd, 0x00, 0x02, 0xfd, 0x11, 0xf4, 0xf1, 0x08, 0x1f, 0xf6, 0x09, 
    0xf9, 0x01, 0xf8, 0x27, 0x21, 0x06, 0x11, 0xf7, 0x07, 0x0e, 0x09, 0xee, 
    0xe6, 0xdb, 0xfb, 0x13, 0xd8, 0xf6, 0x09, 0xdd, 0xf2, 0xfe, 0xe4, 0xf4, 
    0xf1, 0x01, 0x0a, 0xde, 0x06, 0xf2, 0x18, 0x0b, 0xff, 0x19, 0xfc, 0xef, 
    0x03, 0xea, 0x06, 0xfc, 0xec, 0xe8, 0xf3, 0x00, 0x25, 0xef, 0xeb, 0xfe, 
    0xf4, 0xe6, 0x09, 0x1a, 0xf7, 0xeb, 0x24, 0x02, 0xdb, 0xdf, 0x03, 0xcd, 
    0x2a, 0xef, 0x03, 0x16, 0x47, 0xd5, 0xf0, 0x0c, 0xf9, 0xf1, 0x08, 0xd0, 
    0x19, 0xf2, 0xf5, 0xf9, 0xcb, 0x0a, 0x06, 0xf6, 0xf3, 0x02, 0x13, 0x04, 
    0xbe, 0xdf, 0xe7, 0xe4, 0xeb, 0x0a, 0xfc, 0xfb, 0x02, 0x0a, 0xf6, 0xe1, 
    0x18, 0xf4, 0xe1, 0xeb, 0x10, 0xfe, 0xe5, 0xfb, 0xff, 0x0c, 0x0c, 0xf2, 
    0x1b, 0x12, 0xf5, 0xff, 0x0e, 0x18, 0xf1, 0xfc, 0xf3, 0x44, 0xfd, 0xe1, 
    0x1b, 0x14, 0x1d, 0xf4, 0x0e, 0x06, 0x1b, 0x1d, 0x02, 0x0a, 0xee, 0xf8, 
    0xef, 0x7f, 0x1e, 0xf3, 0xf5, 0x03, 0xf3, 0x0f, 0x0b, 0x02, 0x04, 0x19, 
    0x03, 0x21, 0xec, 0x09, 0x06, 0xf4, 0x0b, 0x2a, 0x0a, 0x05, 0x27, 0xe5, 
    0x53, 0x12, 0xf1, 0xf5, 0x0c, 0xe9, 0x16, 0x17, 0xf2, 0x0a, 0x06, 0xe7, 
    0xf5, 0xf8, 0x0a, 0x1e, 0x1b, 0x0f, 0xe2, 0xf1, 0xec, 0xed, 0xeb, 0xfc, 
    0xe3, 0xf4, 0x00, 0xee, 0x2a, 0xfa, 0x0f, 0xf7, 0x11, 0xff, 0xe4, 0xf7, 
    0x31, 0xee, 0x1e, 0x11, 0xfb, 0xfc, 0xff, 0x24, 0xfb, 0x1f, 0x07, 0xf8, 
    0xfe, 0x05, 0x05, 0x08, 0x1a, 0xba, 0x01, 0xfc, 0xdf, 0xfb, 0xf1, 0xef, 
    0xee, 0xfe, 0xef, 0xfa, 0xf4, 0xef, 0x0b, 0xe8, 0x0f, 0x08, 0xed, 0xe5, 
    0xfe, 0xfc, 0x03, 0x0e, 0xeb, 0x12, 0xfb, 0x17, 0x13, 0x1a, 0x36, 0x1b, 
    0xe0, 0xeb, 0x28, 0x44, 0x0c, 0x0e, 0x14, 0xe2, 0x0a, 0x1a, 0x0a, 0xed, 
    0xed, 0x01, 0xef, 0xf3, 0x02, 0xff, 0x07, 0xf2, 0xf4, 0xf5, 0xff, 0xe5, 
    0x11, 0x02, 0xfa, 0x18, 0xfd, 0x12, 0x1e, 0x29, 0x12, 0xe3, 0x06, 0xdc, 
    0xe8, 0x05, 0xfb, 0xf2, 0x00, 0xf4, 0x12, 0xee, 0x11, 0x0f, 0x01, 0x04, 
    0xf3, 0xf2, 0xee, 0xf1, 0x13, 0x17, 0xf7, 0xf5, 0xeb, 0x0a, 0xd8, 0xbd, 
    0xfc, 0x02, 0xe5, 0xfd, 0x0e, 0xf9, 0xeb, 0x16, 0xf0, 0xf5, 0xf0, 0xe6, 
    0x08, 0xfe, 0xf6, 0xe0, 0x05, 0x0e, 0x29, 0xfd, 0x0d, 0x0a, 0x0d, 0x28, 
    0xf4, 0xfa, 0xee, 0x04, 0xfa, 0xfc, 0x08, 0x14, 0xf7, 0xec, 0xee, 0x09, 
    0x07, 0x33, 0xf5, 0xfa, 0x21, 0x0d, 0xfd, 0x0b, 0x21, 0xfc, 0x13, 0xf0, 
    0xff, 0x1a, 0xf7, 0x03, 0x08, 0x12, 0x13, 0x18, 0x07, 0x1f, 0xf4, 0xed, 
    0xff, 0xf4, 0xf0, 0x03, 0xfb, 0x16, 0xf1, 0x00, 0xfb, 0x24, 0xf6, 0xf0, 
    0xee, 0xf0, 0xfa, 0x39, 0x0d, 0x14, 0xf0, 0x0c, 0xe9, 0xfe, 0x09, 0xd9, 
    0x17, 0x1e, 0x1b, 0xfa, 0x01, 0xea, 0xe7, 0xfe, 0x06, 0x16, 0x12, 0xe5, 
    0xed, 0xdd, 0x04, 0x12, 0x20, 0x0b, 0xf4, 0x15, 0xfb, 0x02, 0xf9, 0xf0, 
    0xfb, 0xf3, 0xee, 0xef, 0x12, 0x32, 0x15, 0x0c, 0xef, 0xf4, 0x20, 0xfd, 
    0x04, 0x2a, 0x12, 0xfe, 0x13, 0xe2, 0x03, 0x0a, 0xf3, 0x03, 0x15, 0xfd, 
    0x26, 0xf3, 0x08, 0xce, 0xf7, 0x06, 0xf5, 0xea, 0xc5, 0xee, 0x01, 0x01, 
    0xe0, 0xfb, 0x0b, 0xfe, 0x05, 0xf9, 0x1b, 0x20, 0x2e, 0x1c, 0x0d, 0xfb, 
    0xcc, 0x10, 0x04, 0xf1, 0xef, 0x00, 0x08, 0xec, 0xff, 0x31, 0x2d, 0x13, 
    0xfa, 0x20, 0x1a, 0x01, 0x03, 0xd9, 0xde, 0x25, 0xf6, 0xc9, 0xfe, 0x00, 
    0xe2, 0xe9, 0xf0, 0xfc, 0x0a, 0x17, 0xee, 0xfc, 0xf3, 0xb5, 0xf3, 0xec, 
    0xef, 0x12, 0x18, 0xfc, 0xf7, 0x2a, 0x05, 0x10, 0x0d, 0xfe, 0x1d, 0x28, 
    0x11, 0xd7, 0x17, 0x11, 0xff, 0xea, 0xea, 0xf6, 0x07, 0x43, 0x1a, 0x0a, 
    0x1e, 0x1d, 0xfe, 0x08, 0xc9, 0x02, 0xf0, 0xf4, 0xf8, 0xf9, 0xef, 0xf7, 
    0xfb, 0x10, 0x02, 0x12, 0x09, 0x04, 0xd3, 0xc3, 0x08, 0x1d, 0xc3, 0xe3, 
    0xd7, 0xf0, 0xe8, 0x1d, 0xfa, 0x16, 0x1c, 0x0f, 0x15, 0xea, 0xe7, 0x62, 
    0x1a, 0xfb, 0xff, 0x01, 0x02, 0x05, 0xbf, 0x07, 0xf9, 0xf9, 0x02, 0x0a, 
    0x06, 0x1c, 0x14, 0xf4, 0xe9, 0xfa, 0xfd, 0x08, 0xff, 0xff, 0xda, 0xea, 
    0x0a, 0x19, 0x16, 0x29, 0x07, 0xf5, 0x01, 0xf6, 0xe4, 0x1a, 0x1f, 0xf4, 
    0x10, 0xfd, 0x1e, 0xfb, 0xd1, 0x02, 0xec, 0x07, 0x0a, 0x0c, 0xf3, 0xed, 
    0x0d, 0x18, 0x08, 0xfd, 0x14, 0xff, 0x08, 0x0f, 0xe1, 0xee, 0x05, 0x1a, 
    0x08, 0xdd, 0xf2, 0x07, 0xf1, 0x2d, 0x1a, 0x25, 0x02, 0x1e, 0xe6, 0xf6, 
    0x0d, 0x03, 0x04, 0xed, 0xf2, 0xe7, 0x21, 0xfd, 0xe9, 0x19, 0x64, 0xe9, 
    0x0d, 0xe5, 0x06, 0x0e, 0x04, 0xb5, 0xf4, 0xf9, 0xfb, 0xeb, 0xf0, 0xfa, 
    0x0c, 0xfa, 0x07, 0xf0, 0xc4, 0xf6, 0xcb, 0xfd, 0xeb, 0xeb, 0xfa, 0x10, 
    0x0e, 0xfe, 0x21, 0x0e, 0xf0, 0x1a, 0xff, 0xff, 0xf3, 0xf5, 0x0c, 0x15, 
    0x26, 0x12, 0xec, 0x12, 0x17, 0xf0, 0x18, 0xc3, 0x04, 0x0a, 0xf8, 0xfe, 
    0xe7, 0xec, 0x04, 0x2b, 0x14, 0xf3, 0x13, 0xec, 0xf1, 0x15, 0xfc, 0xdf, 
    0x21, 0xf7, 0xfe, 0x1d, 0x0b, 0xe6, 0xff, 0xf6, 0x03, 0xea, 0x07, 0xf0, 
    0xf6, 0x01, 0x2b, 0x0c, 0xfe, 0xfb, 0x0e, 0xf5, 0x15, 0xf4, 0xfd, 0x15, 
    0xfe, 0xfc, 0x16, 0x11, 0x00, 0xdd, 0x01, 0x13, 0x07, 0x11, 0xf2, 0x0c, 
    0xdb, 0xdb, 0x10, 0x1d, 0x0e, 0x23, 0xf8, 0xcf, 0xcc, 0xf6, 0xdc, 0xd7, 
    0xea, 0xee, 0x0d, 0xfe, 0xe9, 0x0a, 0x06, 0x08, 0xdf, 0x01, 0xf5, 0xfe, 
    0xf6, 0xd7, 0x13, 0x0e, 0x28, 0x0a, 0x03, 0xe9, 0x0d, 0x1e, 0xea, 0xe8, 
    0x0a, 0xcf, 0xe1, 0xef, 0xe2, 0x40, 0x14, 0xe3, 0x3f, 0x14, 0x05, 0xff, 
    0xfa, 0xe4, 0x27, 0xfb, 0x00, 0x0c, 0x13, 0x15, 0xe6, 0xf3, 0xf1, 0xfd, 
    0xf0, 0xd4, 0x26, 0x17, 0xe2, 0x00, 0x1f, 0x0b, 0x0f, 0xf2, 0xf5, 0xf2, 
    0x15, 0xf8, 0x03, 0xe5, 0x20, 0x0b, 0x02, 0x18, 0x06, 0xf5, 0xe8, 0x0a, 
    0xe8, 0xc7, 0xfc, 0xdf, 0xfc, 0xf6, 0xe7, 0x0f, 0x08, 0xe9, 0x11, 0x0e, 
    0x12, 0x01, 0xd6, 0xf3, 0x1d, 0xf3, 0x0d, 0xf5, 0xff, 0x13, 0xea, 0xff, 
    0x29, 0x0c, 0x34, 0xed, 0xf1, 0xe1, 0xef, 0xcb, 0xe0, 0x00, 0x08, 0xee, 
    0x19, 0xe0, 0x08, 0x23, 0x28, 0x04, 0xfb, 0x02, 0xef, 0x1e, 0xe3, 0xed, 
    0x08, 0x13, 0x16, 0x06, 0xf3, 0x0d, 0x12, 0x08, 0xec, 0xee, 0x0e, 0x16, 
    0x39, 0xe5, 0x26, 0xd2, 0x20, 0x00, 0x17, 0x24, 0xe9, 0x0c, 0x02, 0x1f, 
    0xfe, 0x06, 0x02, 0xe0, 0xde, 0xfd, 0x04, 0x1d, 0x22, 0x22, 0x06, 0x19, 
    0xb6, 0xf0, 0xf5, 0xeb, 0x1a, 0xf3, 0x1a, 0x14, 0xfb, 0xe7, 0x05, 0x02, 
    0xf6, 0xfa, 0x09, 0x0e, 0xf1, 0x22, 0xc3, 0xe7, 0x15, 0x16, 0xf9, 0xff, 
    0x0c, 0xe5, 0x04, 0x18, 0xec, 0x03, 0xe7, 0xe2, 0xf7, 0x02, 0xe7, 0x17, 
    0xfd, 0x07, 0x01, 0xea, 0x02, 0x00, 0x1f, 0x0b, 0xde, 0x22, 0x01, 0x06, 
    0x01, 0x03, 0x12, 0x16, 0xfb, 0xde, 0x1d, 0x05, 0xe6, 0xfd, 0x0e, 0x02, 
    0xf1, 0x16, 0x11, 0x1b, 0xfa, 0x12, 0x0c, 0x00, 0xe4, 0x07, 0xe3, 0x17, 
    0xd8, 0x02, 0x06, 0xf1, 0x1a, 0x0c, 0xdc, 0x22, 0xf1, 0xec, 0x11, 0x25, 
    0xf5, 0xfc, 0xfd, 0xda, 0x13, 0xe3, 0x29, 0x21, 0xfe, 0x0c, 0xf8, 0x14, 
    0x1e, 0xf0, 0x05, 0x10, 0xe9, 0x33, 0xe5, 0x0b, 0x0e, 0xf4, 0xe4, 0xe1, 
    0x10, 0x06, 0xdb, 0xe0, 0x0a, 0x07, 0xff, 0xfe, 0xe9, 0xfc, 0xec, 0xf9, 
    0x2f, 0x42, 0xfb, 0x06, 0xe9, 0xf3, 0x29, 0x00, 0xf2, 0x20, 0x0b, 0xe6, 
    0x10, 0x0a, 0xef, 0x1f, 0xf4, 0xe9, 0xd7, 0xf7, 0xe6, 0xfc, 0x16, 0xfd, 
    0x03, 0x29, 0x14, 0x00, 0x0d, 0x17, 0xd5, 0xde, 0xdc, 0xf9, 0x0e, 0x08, 
    0xd7, 0x0e, 0x26, 0x01, 0x18, 0xfc, 0xfc, 0xdf, 0xe5, 0x12, 0x31, 0xee, 
    0xdc, 0x01, 0xdd, 0x04, 0x0d, 0x2d, 0xfc, 0xef, 0xd9, 0x1a, 0x0d, 0xc4, 
    0xf9, 0x09, 0x0b, 0x38, 0x1d, 0x06, 0x12, 0x0d, 0x0d, 0x1b, 0xc2, 0x0d, 
    0xfc, 0x19, 0x06, 0x03, 0x13, 0x2b, 0x09, 0xf5, 0x0d, 0x07, 0xf0, 0xff, 
    0x19, 0xed, 0x04, 0x04, 0xfd, 0xf6, 0x1d, 0x1b, 0xfa, 0x0b, 0xeb, 0xf3, 
    0x07, 0xe0, 0x03, 0x06, 0xe7, 0x3e, 0xfc, 0xfb, 0x0c, 0x14, 0x07, 0x07, 
    0xd6, 0x09, 0x05, 0x00, 0xf1, 0xff, 0xfa, 0x13, 0x02, 0xfd, 0x0f, 0x01, 
    0xdf, 0x05, 0x15, 0xfb, 0xbf, 0xf8, 0xf0, 0x10, 0xe9, 0x20, 0x31, 0x03, 
    0x0e, 0xfc, 0xf0, 0x0c, 0x0d, 0xf1, 0xe7, 0xf7, 0xeb, 0xeb, 0xcf, 0xd4, 
    0xe5, 0xf7, 0xe3, 0xf0, 0xe6, 0xe6, 0xfb, 0xf3, 0x20, 0x0e, 0x0a, 0x28, 
    0xfa, 0x06, 0xe6, 0xfc, 0xfc, 0xfd, 0xe2, 0xe6, 0xff, 0x0e, 0xf5, 0x27, 
    0x10, 0x28, 0x14, 0x1f, 0x13, 0xf9, 0xf5, 0x13, 0xf2, 0xe3, 0xf5, 0xfa, 
    0xef, 0xdc, 0x11, 0xfa, 0xdf, 0xf0, 0x0c, 0xf3, 0xf6, 0xfc, 0x0b, 0x04, 
    0x1a, 0x0d, 0x2d, 0xff, 0xe2, 0xfc, 0xf6, 0x38, 0x17, 0x16, 0x21, 0x0c, 
    0x24, 0xf0, 0xf3, 0x0a, 0x29, 0xf7, 0x0c, 0xf7, 0x13, 0xee, 0x03, 0xfd, 
    0xf8, 0xfc, 0x13, 0x1c, 0xed, 0x0e, 0xea, 0xfc, 0x12, 0xfa, 0xe9, 0xe6, 
    0xe4, 0xdc, 0x04, 0x22, 0xfc, 0xfe, 0xe1, 0x01, 0xf7, 0x14, 0xf8, 0xe2, 
    0xd7, 0xdf, 0x0f, 0x36, 0x1c, 0xf6, 0x05, 0xeb, 0x26, 0xef, 0xf1, 0xe8, 
    0x1a, 0xf5, 0x1b, 0x0c, 0xf1, 0xf2, 0x09, 0xf0, 0xe5, 0xfc, 0xf8, 0x17, 
    0x16, 0xf3, 0x02, 0x01, 0x12, 0x2e, 0x0f, 0x13, 0xf5, 0x0b, 0x23, 0xf8, 
    0xee, 0xf0, 0x10, 0x04, 0x1e, 0x30, 0x4d, 0xef, 0x0a, 0xe7, 0xb9, 0x25, 
    0x14, 0xf8, 0xcb, 0x3a, 0x18, 0xf5, 0xfb, 0xf6, 0x02, 0xfd, 0xed, 0x09, 
    0x07, 0x08, 0x02, 0xf7, 0x04, 0xee, 0x10, 0x20, 0xe7, 0xfe, 0x0f, 0xf1, 
    0xfe, 0xf5, 0xdf, 0xf0, 0xed, 0x1e, 0xca, 0x2c, 0x03, 0x0d, 0xfb, 0x09, 
    0x10, 0x14, 0xee, 0xff, 0x0b, 0x17, 0xee, 0xf9, 0x0f, 0x10, 0x0a, 0xed, 
    0xdd, 0xea, 0x05, 0xed, 0x0b, 0xf3, 0xf6, 0x38, 0xf4, 0x01, 0xe8, 0xed, 
    0xf3, 0x00, 0xdb, 0x0c, 0x19, 0xe7, 0x30, 0xe2, 0x17, 0x18, 0x0f, 0xa6, 
    0xf4, 0x27, 0x22, 0xf5, 0x15, 0x17, 0xf8, 0x34, 0x05, 0x02, 0x23, 0xf3, 
    0x07, 0xf2, 0xba, 0x10, 0xfd, 0xfa, 0x03, 0x01, 0x10, 0xfc, 0xef, 0xf1, 
    0x11, 0x16, 0x16, 0xea, 0x0b, 0x28, 0x22, 0xf9, 0x18, 0x0a, 0x12, 0xeb, 
    0xe1, 0xed, 0xf8, 0xff, 0xe5, 0x2c, 0xca, 0xf6, 0x1a, 0xee, 0xe9, 0xbd, 
    0x25, 0xea, 0xf0, 0x06, 0x6b, 0x0d, 0xe7, 0x13, 0xee, 0xe5, 0x02, 0x06, 
    0x0b, 0x07, 0xdc, 0xc7, 0x16, 0x03, 0x1d, 0x0d, 0x16, 0x0b, 0x13, 0xf3, 
    0xe7, 0x09, 0xe4, 0xc5, 0x10, 0x0d, 0x0e, 0x1d, 0x19, 0xff, 0x09, 0x14, 
    0xe8, 0x04, 0xd5, 0xd8, 0x08, 0xee, 0x01, 0xf8, 0xeb, 0xed, 0xfb, 0xfe, 
    0x01, 0x0c, 0x10, 0x09, 0x12, 0x0e, 0xdd, 0x0d, 0xe5, 0xf8, 0xe6, 0xfe, 
    0x12, 0xe4, 0xf6, 0x21, 0x1f, 0x06, 0x11, 0x1f, 0x05, 0xfe, 0xdd, 0x16, 
    0x01, 0xf9, 0xe9, 0x03, 0x1d, 0x15, 0xd6, 0xe4, 0x00, 0xed, 0xd9, 0x1c, 
    0xf1, 0x0b, 0xf0, 0xeb, 0xda, 0xdd, 0x12, 0xec, 0xee, 0x0a, 0x07, 0xec, 
    0xf7, 0x08, 0xe4, 0xe9, 0xfc, 0xe8, 0x08, 0x3f, 0x0e, 0x62, 0xfc, 0xf2, 
    0x23, 0x07, 0x12, 0x2b, 0x32, 0x03, 0xf7, 0x17, 0xf3, 0x1a, 0xc2, 0x0d, 
    0x0b, 0x12, 0x03, 0xfa, 0x02, 0x09, 0x07, 0x07, 0xfc, 0xf3, 0xe5, 0xee, 
    0x0b, 0xf5, 0xf4, 0xf4, 0xfd, 0x16, 0x09, 0xff, 0x01, 0x02, 0x0d, 0xea, 
    0x09, 0xfa, 0xfe, 0xf3, 0xe9, 0xf7, 0x01, 0xf7, 0xed, 0xdc, 0xe4, 0xf9, 
    0x06, 0xda, 0xf6, 0xf8, 0x0d, 0x14, 0x13, 0xe3, 0x23, 0x30, 0xe9, 0x00, 
    0xff, 0x14, 0xf4, 0x1f, 0x04, 0x0e, 0x17, 0x17, 0x32, 0x0d, 0xff, 0x26, 
    0x1e, 0x17, 0x0b, 0x0c, 0xf1, 0x12, 0x00, 0x02, 0xf7, 0xe1, 0x2a, 0x03, 
    0xf0, 0xf3, 0xf8, 0xfe, 0x0f, 0xe8, 0xe9, 0xf9, 0xf5, 0xfa, 0xea, 0xf4, 
    0xf9, 0xdd, 0xfe, 0x09, 0x18, 0xfa, 0xee, 0xf1, 0x30, 0xdd, 0x0e, 0xfe, 
    0xf7, 0xf2, 0xf9, 0x2e, 0x09, 0x11, 0xf9, 0x00, 0x0c, 0x04, 0x0c, 0xd8, 
    0xde, 0xdf, 0xfc, 0xe9, 0xf3, 0xec, 0x01, 0x02, 0xe7, 0x13, 0xf4, 0xea, 
    0x19, 0x0f, 0x11, 0xf5, 0xf5, 0x07, 0xf2, 0xec, 0xf0, 0xf2, 0xd8, 0x24, 
    0xf6, 0xf5, 0xf5, 0x1f, 0x0f, 0x15, 0x06, 0x02, 0x19, 0x0c, 0xf8, 0x25, 
    0xf5, 0x11, 0x16, 0x1a, 0xfe, 0xf6, 0xe5, 0x13, 0xea, 0x16, 0xf8, 0xf6, 
    0x13, 0x0d, 0x20, 0xfd, 0xf5, 0x12, 0x0e, 0xf4, 0x0b, 0x10, 0xff, 0xef, 
    0xf2, 0xe6, 0x2e, 0x14, 0x20, 0x21, 0xef, 0xd9, 0xec, 0x17, 0xeb, 0x15, 
    0x00, 0x97, 0x05, 0xbf, 0xfc, 0xf1, 0xec, 0xf9, 0x7b, 0xf0, 0xf6, 0xe4, 
    0xe5, 0xee, 0xfd, 0x1d, 0xf5, 0xd9, 0xf5, 0xd8, 0xe3, 0xf8, 0x09, 0xf2, 
    0x20, 0x0b, 0xf4, 0x0c, 0xa9, 0x01, 0x13, 0x03, 0xea, 0x03, 0xf1, 0x19, 
    0x06, 0x30, 0xff, 0x07, 0x1e, 0xf4, 0x0b, 0x05, 0x07, 0x13, 0x16, 0x13, 
    0xf8, 0xff, 0xef, 0x06, 0x09, 0x16, 0xf3, 0x08, 0x26, 0x12, 0xf7, 0x16, 
    0x0e, 0xd9, 0xd9, 0x07, 0x0e, 0xda, 0x13, 0xf2, 0x06, 0x43, 0xe7, 0x07, 
    0x07, 0x00, 0x0e, 0xfb, 0x0f, 0xfc, 0x00, 0xf8, 0x0d, 0x0d, 0xff, 0x1c, 
    0x1b, 0xf8, 0xf8, 0xf6, 0xf5, 0xf6, 0x28, 0x1d, 0xf0, 0xf2, 0xff, 0xfe, 
    0xea, 0x05, 0xfc, 0x38, 0x1c, 0x0c, 0x01, 0x0f, 0xf6, 0xfd, 0xfe, 0x2c, 
    0xe8, 0x2b, 0x03, 0xec, 0x18, 0xf4, 0x03, 0xde, 0xf5, 0x15, 0x18, 0x12, 
    0xfe, 0x0f, 0x20, 0xf4, 0xf2, 0xfd, 0x1c, 0xec, 0xfc, 0xaa, 0xf2, 0x0d, 
    0x0b, 0xe9, 0x10, 0x0d, 0x05, 0xd2, 0xf6, 0xf0, 0x00, 0x0e, 0xf1, 0xf6, 
    0x09, 0x11, 0x00, 0x25, 0x01, 0xf5, 0x03, 0xd9, 0x05, 0x0f, 0xfe, 0x12, 
    0x07, 0x20, 0x05, 0xf7, 0xfd, 0x17, 0xfd, 0xf8, 0x05, 0x01, 0x06, 0xbc, 
    0xeb, 0xfe, 0x00, 0x10, 0x0e, 0x02, 0xec, 0xfb, 0xfa, 0x02, 0xf4, 0xfa, 
    0xff, 0x04, 0xe7, 0x0b, 0xfb, 0x40, 0x10, 0x1d, 0xe7, 0xed, 0xea, 0xe4, 
    0xeb, 0x08, 0xef, 0x00, 0xfd, 0x0c, 0x16, 0xee, 0x0a, 0x07, 0x0b, 0x10, 
    0xfd, 0xf3, 0x10, 0xef, 0x03, 0xf6, 0x04, 0x05, 0xfb, 0xdd, 0xfa, 0xf7, 
    0x26, 0x01, 0xd9, 0xfd, 0xfa, 0xba, 0xee, 0x3b, 0xd6, 0xf4, 0xff, 0xff, 
    0x04, 0x00, 0x00, 0x00, 0x00, 0x01, 0x00, 0x00, 0xc8, 0xe7, 0x92, 0xbe, 
    0xe6, 0xc1, 0x2a, 0xbd, 0x6c, 0x5f, 0x94, 0xbe, 0x4a, 0x4d, 0xa8, 0xbd, 
    0xff, 0x5b, 0x50, 0xbe, 0xca, 0x4d, 0xe8, 0xbd, 0x66, 0x0e, 0x62, 0x3d, 
    0x5d, 0x46, 0x9b, 0x3e, 0xb3, 0xa3, 0x2c, 0xbd, 0x17, 0x99, 0xac, 0xbe, 
    0xba, 0x3d, 0x03, 0xbb, 0xe4, 0x22, 0xbb, 0x3d, 0xdd, 0xc2, 0x03, 0xbe, 
    0x5c, 0xb8, 0x40, 0xbd, 0xd7, 0x8f, 0x09, 0xbc, 0xb8, 0xdf, 0x13, 0x3d, 
    0x83, 0xad, 0x47, 0xbe, 0xc6, 0xc8, 0xc5, 0x3d, 0xe4, 0x35, 0x50, 0xbd, 
    0xd1, 0x86, 0x10, 0xbe, 0x60, 0xf3, 0x40, 0x3d, 0x60, 0xa1, 0x07, 0xbd, 
    0xa7, 0x67, 0xd6, 0xbc, 0x78, 0xb8, 0xc3, 0xbc, 0x97, 0x55, 0x44, 0xbc, 
    0x59, 0xb7, 0xbb, 0x3d, 0xc9, 0xee, 0x1c, 0xbd, 0xb4, 0x8a, 0x29, 0xbe, 
    0x05, 0x6d, 0xc8, 0xbc, 0xf6, 0x70, 0x95, 0x3d, 0xf7, 0x58, 0x11, 0x3d, 
    0xc6, 0x2e, 0x5b, 0x3c, 0x46, 0x31, 0x90, 0x3e, 0xc3, 0x1b, 0x1f, 0x3d, 
    0xff, 0xc7, 0x82, 0x3d, 0x6d, 0x32, 0x54, 0xbd, 0xd3, 0x8f, 0x96, 0xbd, 
    0x99, 0xdd, 0x14, 0xbe, 0x4b, 0x50, 0x50, 0x3e, 0x50, 0x2d, 0xd0, 0x3c, 
    0x74, 0x68, 0x63, 0x3e, 0x87, 0xcb, 0x4f, 0xbe, 0x9c, 0xfe, 0x7b, 0xbd, 
    0x5e, 0x85, 0xdf, 0x3d, 0x85, 0xe6, 0x04, 0xbb, 0x05, 0x04, 0x37, 0x3e, 
    0xdd, 0xd6, 0xd9, 0xbd, 0x30, 0x70, 0x72, 0xbd, 0x69, 0xad, 0xa4, 0x3c, 
    0x82, 0xd8, 0xaa, 0xbd, 0x14, 0x7a, 0xed, 0x3d, 0xce, 0xef, 0x66, 0x3d, 
    0x26, 0x8c, 0x50, 0x3e, 0x49, 0xa2, 0x71, 0xbe, 0x37, 0x71, 0xa8, 0x3d, 
    0x47, 0xf2, 0x3d, 0x3d, 0xc3, 0x92, 0x48, 0x3d, 0x11, 0xce, 0x6e, 0x3d, 
    0x68, 0xb4, 0x7c, 0x3d, 0xf5, 0x10, 0xcd, 0xbc, 0x3f, 0x45, 0xd2, 0xba, 
    0x1a, 0xa5, 0xbc, 0xbd, 0x3b, 0xe1, 0x96, 0xbc, 0xb7, 0x81, 0x46, 0x3b, 
    0xe2, 0xf5, 0xff, 0xff, 0x04, 0x00, 0x00, 0x00, 0x08, 0x00, 0x00, 0x00, 
    0xe8, 0x5e, 0x2b, 0xbd, 0xf1, 0x5b, 0x2b, 0x3d, 0xf6, 0xf5, 0xff, 0xff, 
    0x04, 0x00, 0x00, 0x00, 0x40, 0x00, 0x00, 0x00, 0x46, 0xdd, 0x90, 0x3d, 
    0x5d, 0x01, 0xf5, 0x3d, 0xeb, 0x71, 0x37, 0xbd, 0x83, 0xeb, 0xaf, 0x3d, 
    0xe1, 0x50, 0xe2, 0xbc, 0xa4, 0x5d, 0x0a, 0xbe, 0xa4, 0xfa, 0xa5, 0x3a, 
    0x4b, 0xea, 0x5e, 0xbc, 0x90, 0xb1, 0x63, 0xbd, 0x34, 0xc5, 0x6e, 0xbd, 
    0x6e, 0x95, 0x72, 0x3e, 0x75, 0xa7, 0x26, 0x3d, 0x6d, 0xe3, 0xa6, 0x3d, 
    0x50, 0x9e, 0xd5, 0x3d, 0x7c, 0x7b, 0x2b, 0x3e, 0xff, 0xaa, 0x97, 0x3e, 
    0x42, 0xf6, 0xff, 0xff, 0x04, 0x00, 0x00, 0x00, 0x80, 0x00, 0x00, 0x00, 
    0x86, 0x3d, 0x88, 0xbd, 0xbc, 0xa3, 0x49, 0xbd, 0xf3, 0x82, 0x00, 0x3e, 
    0x93, 0xaf, 0x8a, 0x3d, 0x0b, 0xba, 0x87, 0xbd, 0x64, 0x75, 0xaa, 0xbd, 
    0x1e, 0x97, 0xba, 0x3d, 0x74, 0xd6, 0xcb, 0x3c, 0xf2, 0x70, 0xaa, 0xbd, 
    0x72, 0xec, 0x79, 0xbd, 0xd6, 0x20, 0x85, 0x3d, 0xf4, 0x41, 0x87, 0x3d, 
    0x4b, 0x1f, 0x00, 0xbd, 0x6a, 0xf1, 0x25, 0x3e, 0x71, 0xc0, 0xdc, 0x3d, 
    0x8b, 0x00, 0x88, 0xbc, 0x43, 0x0d, 0x8e, 0xbd, 0x16, 0x39, 0xad, 0xbd, 
    0x1c, 0xc1, 0x36, 0x3d, 0x84, 0x15, 0x06, 0x3e, 0xa1, 0x90, 0xe9, 0xbd, 
    0x41, 0x99, 0x15, 0xbe, 0xbe, 0x75, 0xae, 0x3c, 0xcb, 0x5a, 0x64, 0x3e, 
    0xf9, 0x7e, 0x21, 0xbd, 0x66, 0xbb, 0xc7, 0xbd, 0xc5, 0x07, 0xef, 0x3d, 
    0xb9, 0x80, 0xd0, 0x3d, 0x48, 0x56, 0x50, 0x3c, 0xd0, 0x63, 0x04, 0x3d, 
    0xc5, 0x5d, 0x62, 0xbd, 0xb6, 0x2c, 0x9f, 0xb9, 0xce, 0xf6, 0xff, 0xff, 
    0x04, 0x00, 0x00, 0x00, 0x00, 0x08, 0x00, 0x00, 0x86, 0x4e, 0x28, 0xbc, 
    0x1c, 0x2a, 0xca, 0x3d, 0x2d, 0x2f, 0x94, 0x3d, 0x8b, 0x3c, 0xd3, 0xbe, 
    0xff, 0xac, 0x00, 0x3e, 0xb9, 0xb9, 0xdc, 0x3d, 0x18, 0x7b, 0x46, 0xbe, 
    0xa7, 0xf5, 0x2b, 0xbe, 0x9c, 0x4a, 0x98, 0xbe, 0xcc, 0xbd, 0x13, 0x3d, 
    0xd5, 0xce, 0x7d, 0x3e, 0x56, 0x66, 0xda, 0x3d, 0x3e, 0x7a, 0xac, 0xbd, 
    0x8c, 0xf4, 0xa8, 0xbd, 0x9a, 0x28, 0xdb, 0xbe, 0xe2, 0xd3, 0xf9, 0xbe, 
    0x17, 0xd4, 0x9c, 0xbd, 0xb3, 0x7c, 0xe8, 0x3c, 0x40, 0x6b, 0xf4, 0x3e, 
    0x15, 0x09, 0x0c, 0xbe, 0x5a, 0xe5, 0xdc, 0xbc, 0x7c, 0x0e, 0xe8, 0xbd, 
    0xa7, 0x4c, 0x10, 0xbe, 0x43, 0xb7, 0x0b, 0xbc, 0xd8, 0x77, 0x39, 0xbe, 
    0xd8, 0x43, 0xf4, 0xbd, 0x8e, 0x8f, 0x19, 0xbc, 0xc7, 0xe9, 0x6c, 0x3e, 
    0x51, 0x01, 0x57, 0xbe, 0x0f, 0xd7, 0x9f, 0xbe, 0x3b, 0x52, 0xfc, 0x3d, 
    0x17, 0xd6, 0xe2, 0x3d, 0x7e, 0xa0, 0x23, 0x3e, 0x3b, 0xb9, 0xb8, 0xbe, 
    0x45, 0xe3, 0xd0, 0xbd, 0x6f, 0x80, 0xd9, 0x3e, 0x9a, 0xdd, 0xf4, 0x3e, 
    0xec, 0x8a, 0x15, 0xbe, 0x4f, 0x62, 0xd1, 0x3e, 0xde, 0x83, 0xe8, 0xbe, 
    0xe7, 0x22, 0x8f, 0x3d, 0x3a, 0x40, 0x9d, 0xbe, 0xcf, 0x19, 0xe6, 0xbd, 
    0xb5, 0xdc, 0x38, 0x3e, 0xf1, 0x4a, 0xdd, 0xbe, 0x2f, 0x50, 0x27, 0x3f, 
    0x41, 0x07, 0xdb, 0xbe, 0xc7, 0x49, 0x22, 0xbe, 0x0e, 0x23, 0x4d, 0x3e, 
    0xcd, 0x05, 0x8d, 0xbd, 0x77, 0xf1, 0x67, 0x3c, 0x36, 0x7b, 0xa6, 0x3e, 
    0xba, 0x34, 0xcd, 0xbe, 0x86, 0xc9, 0x4f, 0xbe, 0xe6, 0x6a, 0xbe, 0x3d, 
    0x79, 0xe7, 0x9a, 0xbb, 0x7c, 0x11, 0xf2, 0xbe, 0x00, 0xb4, 0x59, 0x3e, 
    0x22, 0xb0, 0xb7, 0x3e, 0x5e, 0xc4, 0x92, 0x3d, 0x87, 0x8d, 0x22, 0xbe, 
    0xeb, 0x25, 0x0d, 0x3f, 0xdc, 0x27, 0xe7, 0xbd, 0xb3, 0x9e, 0x36, 0xbd, 
    0x11, 0x58, 0xb6, 0xbe, 0x59, 0xdd, 0x27, 0x3e, 0x91, 0x0c, 0xef, 0x3c, 
    0x66, 0xfc, 0x3d, 0xbe, 0xee, 0x7a, 0x3f, 0xbe, 0x0e, 0x46, 0xe9, 0x3e, 
    0xb4, 0x90, 0xe8, 0x3e, 0xae, 0x3f, 0x05, 0x3f, 0x2f, 0x2f, 0x7a, 0x3e, 
    0x93, 0x89, 0x07, 0x3f, 0x06, 0xf1, 0xc5, 0x3e, 0x0f, 0xb8, 0x81, 0x3d, 
    0x4c, 0x50, 0xb7, 0x3e, 0x27, 0x5f, 0x00, 0xbf, 0xe1, 0x1d, 0xf8, 0x3e, 
    0xb6, 0xed, 0x9d, 0xbd, 0xb3, 0x72, 0x77, 0x3e, 0x83, 0x8b, 0x3d, 0xbe, 
    0x35, 0x02, 0xe4, 0xbe, 0x58, 0x22, 0x89, 0x3e, 0x10, 0xbf, 0x7a, 0x3e, 
    0xdf, 0xd5, 0x62, 0xbe, 0x14, 0xe9, 0x6a, 0xbe, 0x52, 0xc9, 0x08, 0xbf, 
    0x13, 0x1e, 0xb7, 0x3d, 0xbb, 0x13, 0xa7, 0x3d, 0x06, 0x31, 0x82, 0xbf, 
    0xd0, 0xbe, 0xb7, 0xbe, 0xf6, 0xae, 0x34, 0x3e, 0x74, 0xbf, 0xee, 0xbd, 
    0x75, 0xf1, 0x47, 0x3d, 0xab, 0xff, 0x32, 0x3d, 0xe4, 0xe5, 0x33, 0x3e, 
    0xff, 0x16, 0xa5, 0x3e, 0x81, 0x16, 0x27, 0x3f, 0xf3, 0xb2, 0xc5, 0x3c, 
    0xf8, 0xca, 0xeb, 0x3c, 0xb6, 0xad, 0x3a, 0x3d, 0xea, 0x4e, 0x9f, 0x3b, 
    0x4c, 0x99, 0xe5, 0x3e, 0x64, 0xce, 0x1e, 0x3e, 0xd5, 0x9d, 0x54, 0x3e, 
    0xb8, 0xfd, 0x7a, 0x3c, 0x7b, 0x28, 0x2a, 0x3c, 0x8d, 0xfe, 0xed, 0x3e, 
    0x02, 0x8d, 0x48, 0xbd, 0x44, 0xb4, 0xad, 0x3e, 0x2c, 0xb8, 0xf3, 0x3e, 
    0xb6, 0xe1, 0x11, 0x3d, 0x77, 0x9c, 0x88, 0x3d, 0x10, 0xcc, 0xe1, 0x3e, 
    0x89, 0xf1, 0x11, 0x3e, 0xe2, 0x52, 0xe2, 0xbe, 0x10, 0xbc, 0x1f, 0xbf, 
    0x4f, 0x78, 0x15, 0xbd, 0x8e, 0x5f, 0x36, 0xbf, 0x14, 0x94, 0xe1, 0xbd, 
    0x30, 0x40, 0xc3, 0x3e, 0x67, 0x5f, 0x90, 0xbe, 0xac, 0x37, 0x85, 0x3e, 
    0x66, 0xd5, 0x85, 0xbe, 0x11, 0x32, 0xed, 0x3d, 0xb4, 0xdc, 0xb7, 0xbd, 
    0x27, 0x4b, 0x18, 0x3e, 0xb9, 0x8f, 0xe0, 0xbc, 0x10, 0xcd, 0x05, 0xbf, 
    0x01, 0xb1, 0xe2, 0xbd, 0xeb, 0x85, 0x8c, 0x3e, 0x40, 0x05, 0xcf, 0xbc, 
    0x92, 0x02, 0x9c, 0xbc, 0x4c, 0xdf, 0x4c, 0x3d, 0xb0, 0xe0, 0xc6, 0xbe, 
    0xd8, 0x9d, 0x94, 0x3e, 0x2e, 0xf5, 0x04, 0xbe, 0xd2, 0x78, 0x23, 0x3e, 
    0x94, 0xe2, 0x96, 0xbd, 0xe6, 0xf4, 0xf9, 0xbd, 0x5f, 0x47, 0x0a, 0xbb, 
    0x3b, 0x22, 0xeb, 0xbc, 0xf9, 0x48, 0x52, 0xbe, 0xf1, 0xd3, 0x99, 0x3e, 
    0x15, 0xd2, 0x17, 0xbe, 0x44, 0x9e, 0x8f, 0xbd, 0x7e, 0x43, 0x6b, 0xbd, 
    0xe0, 0xf1, 0xe2, 0x3d, 0xd1, 0xd2, 0x1e, 0x3e, 0x02, 0x3f, 0x65, 0x3e, 
    0x17, 0x75, 0xb6, 0x3d, 0xef, 0x30, 0xb1, 0xbe, 0xc4, 0x62, 0x91, 0x3e, 
    0xe2, 0x38, 0xc5, 0x3d, 0x96, 0xdf, 0x85, 0x3d, 0xd1, 0xfa, 0xe9, 0xbc, 
    0x6f, 0x5b, 0x5a, 0x3c, 0xfa, 0xa1, 0x12, 0xbb, 0xaa, 0xe2, 0x9c, 0x3e, 
    0x57, 0xf5, 0x8d, 0xbd, 0xc1, 0xf7, 0x38, 0x3d, 0xf0, 0x25, 0xa4, 0xbe, 
    0x78, 0x3b, 0xa6, 0x3e, 0x22, 0xcb, 0x14, 0x3e, 0x6d, 0x5b, 0xf8, 0xbd, 
    0xc3, 0x8e, 0x1b, 0xbe, 0xa0, 0x25, 0xbc, 0xbd, 0x61, 0x80, 0x19, 0xbd, 
    0x16, 0xa5, 0x0d, 0xbe, 0x10, 0x98, 0x1f, 0x3e, 0x00, 0x3c, 0x0f, 0xbe, 
    0xaf, 0xae, 0x18, 0xbe, 0x53, 0x81, 0x09, 0x3f, 0xff, 0xcc, 0xa5, 0xbe, 
    0x90, 0xdc, 0x8b, 0xbd, 0x6d, 0x25, 0x5e, 0xbc, 0x61, 0x99, 0xa4, 0xbe, 
    0xa9, 0xee, 0xd2, 0x3d, 0x36, 0xa2, 0xb6, 0xbe, 0xb5, 0x26, 0x8b, 0xbe, 
    0xb6, 0xb3, 0x27, 0xbe, 0x53, 0x3a, 0x32, 0xbd, 0x9c, 0xc8, 0xbe, 0x3e, 
    0x50, 0x0d, 0xc2, 0xbe, 0x83, 0xc5, 0x1c, 0xbe, 0xa6, 0xa2, 0x2d, 0xbd, 
    0xac, 0xd7, 0x4d, 0xbe, 0x58, 0xf6, 0x54, 0x3e, 0xe6, 0x94, 0x26, 0x3e, 
    0x69, 0x16, 0xbd, 0xbe, 0xad, 0xcf, 0x62, 0x3e, 0xf3, 0xf2, 0xb8, 0xbd, 
    0xf4, 0xad, 0x9e, 0xbe, 0xcb, 0x90, 0xd6, 0xbe, 0xee, 0xcd, 0xb3, 0xbc, 
    0xec, 0xb5, 0xce, 0xbb, 0x4c, 0xe9, 0x22, 0xbd, 0x18, 0x54, 0xf0, 0xbd, 
    0xaf, 0xad, 0x72, 0xbd, 0x99, 0x61, 0x79, 0x3e, 0x43, 0x68, 0xc1, 0xbe, 
    0x62, 0xc6, 0x55, 0x3e, 0x4b, 0xf4, 0x01, 0x3e, 0xbc, 0x49, 0x91, 0xbe, 
    0x11, 0x6d, 0x6d, 0x3e, 0x9c, 0x29, 0x77, 0x3e, 0x1d, 0x0a, 0x24, 0x3e, 
    0x47, 0x9d, 0x7c, 0xbe, 0x8b, 0xc4, 0x12, 0xbf, 0x5e, 0x72, 0x44, 0x3e, 
    0xfc, 0xae, 0xc9, 0x3e, 0x23, 0x36, 0x0d, 0x3e, 0xf6, 0x50, 0xa2, 0x3e, 
    0xe9, 0xa1, 0x68, 0x3e, 0x69, 0x34, 0xb1, 0x3e, 0x5d, 0x29, 0x31, 0x3e, 
    0xe2, 0x60, 0x7c, 0x3e, 0xb4, 0x54, 0xb8, 0xbe, 0x00, 0x35, 0xb2, 0x3e, 
    0xdb, 0x6d, 0x80, 0x3e, 0x32, 0xda, 0x44, 0x3e, 0x5d, 0x50, 0xcd, 0x3c, 
    0x50, 0xdb, 0x21, 0x3e, 0xc4, 0xbb, 0xaa, 0xbe, 0xee, 0xd3, 0xa9, 0xbd, 
    0x24, 0x8d, 0x03, 0x3f, 0xc6, 0x59, 0xaf, 0xbd, 0xee, 0x44, 0xd1, 0xbd, 
    0xd1, 0x88, 0x8f, 0xbe, 0x5b, 0xa7, 0x44, 0xbe, 0x33, 0xf8, 0xaf, 0x3e, 
    0x84, 0xe1, 0x22, 0xbe, 0x14, 0xe6, 0x1f, 0x3e, 0x6d, 0x41, 0x32, 0x3e, 
    0x76, 0x66, 0x08, 0xbf, 0x7f, 0xf9, 0xe6, 0x3e, 0x35, 0x63, 0xc3, 0xbe, 
    0xce, 0x69, 0x9f, 0x3e, 0x86, 0xcd, 0x08, 0x3f, 0x17, 0xf2, 0xd4, 0xbc, 
    0x1e, 0x6f, 0xad, 0x3e, 0x30, 0xb0, 0x3e, 0x3e, 0xb2, 0xf5, 0xef, 0xbd, 
    0x4d, 0x36, 0xfb, 0xbd, 0x04, 0xbf, 0x07, 0xbf, 0x6c, 0xb0, 0x25, 0x3c, 
    0x0a, 0x88, 0xcd, 0x3c, 0x8b, 0x05, 0x44, 0x3e, 0xb7, 0x65, 0x00, 0x3e, 
    0x92, 0x89, 0xd9, 0xbd, 0x26, 0x02, 0x53, 0x3e, 0xe6, 0x45, 0x09, 0x3c, 
    0xe5, 0x74, 0xb2, 0xbe, 0x4e, 0x09, 0x29, 0x3b, 0x1f, 0x25, 0x8a, 0xbe, 
    0x29, 0x8f, 0x51, 0x3e, 0x1a, 0x92, 0x5b, 0x3e, 0x17, 0xf4, 0xf7, 0x3e, 
    0x9d, 0x21, 0x0c, 0x3e, 0xae, 0x2f, 0x7b, 0xbd, 0x13, 0x9e, 0xe7, 0xbd, 
    0x75, 0xc2, 0x52, 0xbe, 0x67, 0x40, 0xe7, 0x3e, 0x8e, 0xf2, 0xb6, 0xbe, 
    0x34, 0xe2, 0x1a, 0x3c, 0x88, 0x6f, 0xdb, 0xbd, 0xb7, 0xd8, 0x37, 0xbf, 
    0xc9, 0x2d, 0xda, 0x3e, 0x4c, 0xf6, 0x1a, 0xbf, 0xa8, 0xf4, 0xa5, 0x3e, 
    0xbf, 0x24, 0x80, 0x3e, 0xa3, 0x8d, 0x96, 0x3e, 0x41, 0xf4, 0xb6, 0x3e, 
    0x47, 0xf8, 0x25, 0x3c, 0x91, 0xf0, 0xfc, 0x3c, 0x2d, 0x0e, 0xe9, 0xbd, 
    0x1a, 0x35, 0x06, 0xbe, 0x34, 0x6d, 0x99, 0xbe, 0x4e, 0x36, 0xac, 0xbe, 
    0x70, 0x05, 0x0b, 0x3e, 0x12, 0x6e, 0x81, 0xbe, 0x86, 0xb9, 0x02, 0x3e, 
    0x11, 0xdc, 0x2a, 0x3e, 0x9e, 0xc5, 0x8c, 0xbe, 0x5e, 0xc4, 0xc8, 0x3d, 
    0x06, 0x2a, 0xa8, 0x3e, 0xb9, 0xe4, 0x0a, 0xbf, 0xb4, 0x30, 0x8f, 0x3b, 
    0xb5, 0x30, 0x80, 0x3e, 0xc2, 0x34, 0x02, 0x3f, 0x2f, 0x06, 0x89, 0x3e, 
    0x07, 0x65, 0x48, 0xbd, 0x13, 0x0e, 0xfc, 0xbe, 0x37, 0xa6, 0x47, 0x3c, 
    0x99, 0x56, 0xeb, 0x3e, 0x39, 0x0e, 0x8f, 0x3e, 0x5e, 0x41, 0xe8, 0x3e, 
    0xb6, 0x3c, 0xb4, 0x3e, 0xc6, 0x3e, 0xc5, 0xbe, 0x08, 0x8f, 0xfc, 0x3e, 
    0x10, 0x9f, 0x08, 0xbf, 0x2e, 0x8d, 0x74, 0xbe, 0x1b, 0xfc, 0xcd, 0x3e, 
    0x62, 0xeb, 0x9e, 0x3e, 0xdd, 0xa8, 0x1d, 0xbd, 0xfc, 0x4b, 0xc7, 0x3d, 
    0xc0, 0x99, 0x00, 0xbe, 0x11, 0xbe, 0x66, 0x3d, 0x2a, 0x78, 0x1d, 0xbf, 
    0x64, 0xa3, 0x05, 0xbf, 0xd9, 0xad, 0x3f, 0x3c, 0x72, 0x75, 0xaf, 0x3e, 
    0x98, 0x6d, 0xe6, 0xbc, 0xc8, 0xca, 0x0c, 0xbe, 0x19, 0xf1, 0x80, 0x3e, 
    0x7b, 0x26, 0x3b, 0xbe, 0xbc, 0x4f, 0xb8, 0xbe, 0xf1, 0x47, 0x08, 0x3f, 
    0x06, 0x1e, 0xf5, 0xbe, 0x62, 0xf3, 0x03, 0xbe, 0x92, 0x40, 0xbf, 0x3e, 
    0xb8, 0x38, 0xb1, 0xbe, 0x16, 0xa5, 0xb2, 0x3e, 0x75, 0x06, 0xfb, 0xbc, 
    0x25, 0x52, 0xbc, 0x3e, 0x86, 0x09, 0xfb, 0x3e, 0x95, 0xa1, 0xbb, 0xbe, 
    0x79, 0xe1, 0xac, 0x3e, 0x94, 0x51, 0x38, 0xbd, 0x31, 0xc6, 0x9c, 0xbe, 
    0x14, 0x2a, 0xe9, 0x3e, 0xc4, 0x07, 0xa3, 0xbe, 0xcb, 0x5d, 0x19, 0x3f, 
    0xd8, 0x10, 0xa5, 0xbe, 0x76, 0x8d, 0x07, 0xbf, 0x58, 0x35, 0x04, 0xbf, 
    0x09, 0x2e, 0x09, 0xbe, 0xe8, 0x7e, 0x48, 0xbe, 0x5c, 0x23, 0x22, 0x3e, 
    0x31, 0xa3, 0x6c, 0xbe, 0x52, 0x76, 0x1a, 0x3f, 0xcb, 0x9d, 0x3d, 0x3e, 
    0x76, 0xc3, 0xf6, 0x3d, 0xc2, 0x92, 0x39, 0x3d, 0xb2, 0x94, 0x77, 0x3e, 
    0xb6, 0x84, 0xf2, 0xbb, 0xcb, 0xb2, 0x7e, 0xbd, 0x96, 0x42, 0xfc, 0x3d, 
    0x8c, 0xf5, 0x4a, 0x3e, 0xdf, 0xaa, 0x2e, 0xbd, 0xb7, 0x0d, 0xa4, 0x3e, 
    0x7e, 0x14, 0x50, 0x3e, 0x37, 0x40, 0x7a, 0x3e, 0x28, 0x92, 0xc3, 0xbe, 
    0xb7, 0x42, 0x8a, 0xbe, 0x51, 0xfb, 0xa4, 0x3e, 0x8e, 0xca, 0x94, 0xbe, 
    0x08, 0xc2, 0x5b, 0xbe, 0x1b, 0xfe, 0x10, 0x3f, 0xc6, 0x6c, 0xc2, 0xbd, 
    0xb9, 0x6a, 0x09, 0xbf, 0xd1, 0xf4, 0xe0, 0xbe, 0xec, 0xdd, 0x10, 0x3f, 
    0xa9, 0x85, 0x43, 0xbe, 0xf6, 0x0e, 0x02, 0x3f, 0x3f, 0x13, 0x5c, 0x3e, 
    0xf0, 0x21, 0x11, 0xbe, 0x96, 0x98, 0x16, 0xbe, 0xf3, 0x57, 0xff, 0xbe, 
    0x71, 0xc8, 0x60, 0x3e, 0x05, 0x45, 0x4d, 0x3e, 0xeb, 0x10, 0xa6, 0x3e, 
    0x13, 0x02, 0x55, 0xbe, 0x0b, 0xa8, 0x83, 0x3e, 0xb9, 0x3d, 0xe5, 0x3e, 
    0x3e, 0x23, 0x21, 0x3e, 0x8a, 0x14, 0x48, 0xbe, 0xc1, 0xf5, 0x8a, 0xbe, 
    0x0d, 0x29, 0xd5, 0x3b, 0x01, 0x68, 0xbf, 0x3e, 0x32, 0x37, 0xb8, 0x3e, 
    0x2f, 0x6b, 0x0b, 0xbe, 0xc7, 0x86, 0x5f, 0x3d, 0xe7, 0xbe, 0xf0, 0xbc, 
    0x08, 0x3f, 0x09, 0xbf, 0x2b, 0xdb, 0x50, 0xbd, 0x6d, 0x1e, 0x5f, 0x3e, 
    0xd0, 0xa3, 0x55, 0xbe, 0x18, 0xaa, 0xf5, 0xbd, 0xa6, 0x9d, 0x76, 0xbe, 
    0x51, 0xb8, 0x01, 0xbf, 0xa2, 0x6b, 0x83, 0xbd, 0x0f, 0x0b, 0x68, 0xbe, 
    0x12, 0xdf, 0x3c, 0x3e, 0x63, 0x53, 0xaf, 0x3e, 0x16, 0x5b, 0x3a, 0xbc, 
    0x8d, 0x3b, 0x8a, 0x3e, 0xcd, 0x12, 0x89, 0x3e, 0xdd, 0xa6, 0x8b, 0xbe, 
    0x24, 0x2e, 0xd5, 0xbc, 0x6d, 0x64, 0x9d, 0xbc, 0x99, 0x3e, 0x1e, 0x3e, 
    0x89, 0x96, 0xe8, 0x3e, 0x55, 0x26, 0x6e, 0xbe, 0x81, 0x50, 0x01, 0x3f, 
    0x1b, 0x4d, 0xa6, 0x3e, 0x15, 0x99, 0x01, 0x3f, 0x14, 0xe9, 0x1d, 0xbe, 
    0xd2, 0x8c, 0x98, 0xbd, 0xa5, 0x3f, 0x0f, 0xbe, 0xed, 0x98, 0x9b, 0x3e, 
    0x6c, 0xd3, 0xa5, 0x3d, 0x11, 0xfb, 0xdc, 0x3e, 0x50, 0xe0, 0x15, 0xbf, 
    0x9f, 0x1b, 0x72, 0x3e, 0xcd, 0xe7, 0x0e, 0x3e, 0x6e, 0x36, 0x4c, 0xbd, 
    0x36, 0x91, 0x0a, 0x3f, 0xb8, 0xba, 0x4f, 0xbe, 0x50, 0x61, 0xc9, 0x3d, 
    0x81, 0x02, 0x09, 0xbf, 0x82, 0x7f, 0x17, 0xbf, 0x6c, 0xb6, 0xc2, 0x3e, 
    0x52, 0x4b, 0x4f, 0x3e, 0x0c, 0xae, 0x3a, 0xbd, 0xfa, 0x20, 0xc2, 0x3d, 
    0x41, 0x7a, 0xb1, 0xbe, 0x34, 0xf7, 0xbd, 0x3e, 0xf9, 0x78, 0x37, 0x3b, 
    0xf2, 0x4e, 0xb7, 0xbe, 0xd0, 0x32, 0x0f, 0xbe, 0x94, 0xac, 0x19, 0xbe, 
    0x60, 0x85, 0x59, 0x3e, 0x0d, 0x5f, 0x40, 0x3e, 0xfd, 0xd3, 0x1c, 0x3d, 
    0xdf, 0x17, 0x21, 0xbf, 0x7e, 0x87, 0x1b, 0xbf, 0xd5, 0x67, 0x81, 0xbe, 
    0x8e, 0xaa, 0x04, 0x3d, 0xf6, 0x25, 0x7b, 0x3e, 0x28, 0xe9, 0x65, 0xbe, 
    0x91, 0xb3, 0xb1, 0x3e, 0x15, 0x3a, 0x07, 0x3e, 0x96, 0x13, 0xd6, 0xbe, 
    0xa9, 0x4f, 0x2c, 0xbe, 0x37, 0xc8, 0xb3, 0x3e, 0xf1, 0x73, 0x70, 0xbe, 
    0x2e, 0xcd, 0x26, 0x3e, 0xab, 0xdd, 0x78, 0x3e, 0xed, 0x4c, 0xa9, 0xbe, 
    0x89, 0xf0, 0x9d, 0x3e, 0x7b, 0x90, 0x35, 0xbd, 0x7e, 0xc2, 0xd6, 0xbd, 
    0x66, 0x35, 0xe3, 0x3d, 0xed, 0xee, 0x8e, 0xbe, 0x38, 0x9f, 0x30, 0xbe, 
    0xc9, 0x6d, 0x58, 0x3e, 0x7c, 0x21, 0x88, 0xbd, 0x05, 0xa2, 0x85, 0x3e, 
    0xd0, 0x48, 0x0c, 0xbf, 0xb2, 0x5d, 0xd2, 0x3e, 0x24, 0xe0, 0x30, 0x3e, 
    0x42, 0x66, 0x37, 0xbd, 0x67, 0x13, 0x84, 0xbe, 0x91, 0xaa, 0x89, 0xbb, 
    0x8b, 0xdb, 0xa6, 0xbe, 0xb8, 0x50, 0x0d, 0xbe, 0x2c, 0x84, 0x77, 0xbe, 
    0x27, 0xe8, 0xef, 0x3e, 0xeb, 0x5c, 0xe5, 0x3e, 0xf2, 0xf8, 0x03, 0x3f, 
    0xbb, 0xc3, 0xfc, 0xbd, 0x34, 0x8e, 0x0b, 0xbe, 0xa1, 0x00, 0x1f, 0x3e, 
    0xaf, 0xf9, 0x90, 0xbc, 0xe3, 0x84, 0x34, 0x3e, 0x1c, 0xeb, 0xce, 0x3e, 
    0x4a, 0xce, 0xef, 0xbe, 0x40, 0x54, 0xd8, 0x3d, 0x11, 0xbe, 0x79, 0xbe, 
    0x61, 0x2d, 0xd0, 0x3e, 0x71, 0xb6, 0xfe, 0xbe, 0x1f, 0x47, 0xfc, 0xbd, 
    0x94, 0x8f, 0x59, 0x3e, 0xe8, 0xd5, 0x31, 0x3e, 0x4e, 0xc9, 0x81, 0x3e, 
    0x61, 0x63, 0x00, 0xbf, 0x9e, 0xe2, 0x2a, 0xbb, 0x7d, 0xba, 0x89, 0xbe, 
    0xdb, 0x00, 0xd0, 0xbe, 0x89, 0xe8, 0x15, 0x3f, 0x6b, 0xe0, 0xf1, 0xbe, 
    0xd8, 0x79, 0x81, 0x3d, 0x4f, 0x58, 0xb6, 0x3e, 0xf2, 0x2a, 0xb9, 0xbe, 
    0x3f, 0xf2, 0x9e, 0xbd, 0x40, 0x27, 0x9f, 0xbd, 0x05, 0x41, 0xc1, 0xbc, 
    0x55, 0x81, 0x9f, 0x3e, 0x96, 0x89, 0x80, 0xbc, 0x77, 0x07, 0x0a, 0x3f, 
    0x03, 0x6a, 0x34, 0x3b, 0xbd, 0x28, 0x0f, 0x3e, 0xa0, 0xc1, 0x08, 0x3e, 
    0x24, 0xd2, 0x3f, 0xbe, 0xcd, 0x55, 0xd4, 0x3e, 0x39, 0x43, 0x75, 0xbe, 
    0x25, 0xc7, 0x98, 0xbb, 0x08, 0xbb, 0x75, 0x3e, 0xd3, 0x12, 0x3b, 0xbe, 
    0x3e, 0x9d, 0x02, 0x3f, 0xda, 0xfe, 0xff, 0xff, 0x04, 0x00, 0x00, 0x00, 
    0x80, 0x00, 0x00, 0x00, 0xbf, 0x20, 0x00, 0x3f, 0x8f, 0x19, 0x3d, 0xbf, 
    0x87, 0x68, 0x41, 0x3f, 0x15, 0x41, 0x09, 0xbd, 0x9f, 0xcc, 0xb8, 0x3d, 
    0xbb, 0x64, 0x13, 0x3e, 0x14, 0x32, 0x0c, 0xbf, 0x25, 0xeb, 0x80, 0xbe, 
    0x97, 0x31, 0xb8, 0x3e, 0x8a, 0x0d, 0xa6, 0x3e, 0x06, 0x5c, 0x50, 0x3c, 
    0xe1, 0x8d, 0xcf, 0xbe, 0x0e, 0x78, 0x1f, 0xbf, 0x3b, 0x0d, 0x1d, 0x3e, 
    0xf6, 0x65, 0xd7, 0xbe, 0x88, 0x66, 0x6b, 0xbe, 0x2e, 0xc6, 0x1c, 0xbd, 
    0x21, 0xbe, 0x30, 0x3f, 0xeb, 0xbd, 0xe6, 0xbe, 0x4c, 0xbc, 0x31, 0xbf, 
    0x22, 0x9e, 0x14, 0x3e, 0x1f, 0xc8, 0x9c, 0x3d, 0xf7, 0xcb, 0x21, 0x3f, 
    0x31, 0x88, 0x0f, 0xbf, 0xae, 0x62, 0x6d, 0xbe, 0xaa, 0xb3, 0x04, 0xbf, 
    0xfd, 0xcd, 0xa1, 0x3e, 0xfe, 0xf6, 0xd1, 0x3e, 0x56, 0xd6, 0x1a, 0x3d, 
    0x5f, 0xc0, 0x16, 0xbf, 0xb0, 0xa2, 0xc5, 0xbd, 0xcb, 0x40, 0x8c, 0x3e, 
    0x68, 0xf8, 0xff, 0xff, 0x6c, 0xf8, 0xff, 0xff, 0x0f, 0x00, 0x00, 0x00, 
    0x4d, 0x4c, 0x49, 0x52, 0x20, 0x43, 0x6f, 0x6e, 0x76, 0x65, 0x72, 0x74, 
    0x65, 0x64, 0x2e, 0x00, 0x01, 0x00, 0x00, 0x00, 0x14, 0x00, 0x00, 0x00, 
    0x00, 0x00, 0x0e, 0x00, 0x18, 0x00, 0x14, 0x00, 0x10, 0x00, 0x0c, 0x00, 
    0x08, 0x00, 0x04, 0x00, 0x0e, 0x00, 0x00, 0x00, 0x14, 0x00, 0x00, 0x00, 
    0x1c, 0x00, 0x00, 0x00, 0x78, 0x01, 0x00, 0x00, 0x7c, 0x01, 0x00, 0x00, 
    0x80, 0x01, 0x00, 0x00, 0x04, 0x00, 0x00, 0x00, 0x6d, 0x61, 0x69, 0x6e, 
    0x00, 0x00, 0x00, 0x00, 0x05, 0x00, 0x00, 0x00, 0x1c, 0x01, 0x00, 0x00, 
    0xd4, 0x00, 0x00, 0x00, 0x94, 0x00, 0x00, 0x00, 0x50, 0x00, 0x00, 0x00, 
    0x14, 0x00, 0x00, 0x00, 0x00, 0x00, 0x0e, 0x00, 0x1a, 0x00, 0x14, 0x00, 
    0x10, 0x00, 0x0c, 0x00, 0x0b, 0x00, 0x04, 0x00, 0x0e, 0x00, 0x00, 0x00, 
    0x1c, 0x00, 0x00, 0x00, 0x00, 0x00, 0x00, 0x09, 0x1c, 0x00, 0x00, 0x00, 
    0x20, 0x00, 0x00, 0x00, 0x01, 0x00, 0x00, 0x00, 0x00, 0x00, 0x06, 0x00, 
    0x08, 0x00, 0x04, 0x00, 0x06, 0x00, 0x00, 0x00, 0x00, 0x00, 0x80, 0x3f, 
    0x01, 0x00, 0x00, 0x00, 0x0d, 0x00, 0x00, 0x00, 0x01, 0x00, 0x00, 0x00, 
    0x0c, 0x00, 0x00, 0x00, 0x4e, 0xff, 0xff, 0xff, 0x10, 0x00, 0x00, 0x00, 
    0x00, 0x00, 0x00, 0x08, 0x0c, 0x00, 0x00, 0x00, 0x10, 0x00, 0x00, 0x00, 
    0x34, 0xf9, 0xff, 0xff, 0x01, 0x00, 0x00, 0x00, 0x0c, 0x00, 0x00, 0x00, 
    0x03, 0x00, 0x00, 0x00, 0x0b, 0x00, 0x00, 0x00, 0x01, 0x00, 0x00, 0x00, 
    0x05, 0x00, 0x00, 0x00, 0x00, 0x00, 0x0e, 0x00, 0x16, 0x00, 0x00, 0x00, 
    0x10, 0x00, 0x0c, 0x00, 0x0b, 0x00, 0x04, 0x00, 0x0e, 0x00, 0x00, 0x00, 
    0x18, 0x00, 0x00, 0x00, 0x00, 0x00, 0x00, 0x08, 0x18, 0x00, 0x00, 0x00, 
    0x1c, 0x00, 0x00, 0x00, 0x00, 0x00, 0x06, 0x00, 0x08, 0x00, 0x07, 0x00, 
    0x06, 0x00, 0x00, 0x00, 0x00, 0x00, 0x00, 0x01, 0x01, 0x00, 0x00, 0x00, 
    0x0b, 0x00, 0x00, 0x00, 0x03, 0x00, 0x00, 0x00, 0x0a, 0x00, 0x00, 0x00, 
    0x02, 0x00, 0x00, 0x00, 0x04, 0x00, 0x00, 0x00, 0xca, 0xff, 0xff, 0xff, 
    0x10, 0x00, 0x00, 0x00, 0x00, 0x00, 0x00, 0x08, 0x10, 0x00, 0x00, 0x00, 
    0x14, 0x00, 0x00, 0x00, 0xbc, 0xff, 0xff, 0xff, 0x00, 0x00, 0x01, 0x01, 
    0x01, 0x00, 0x00, 0x00, 0x0a, 0x00, 0x00, 0x00, 0x03, 0x00, 0x00, 0x00, 
    0x09, 0x00, 0x00, 0x00, 0x08, 0x00, 0x00, 0x00, 0x03, 0x00, 0x00, 0x00, 
    0x00, 0x00, 0x0e, 0x00, 0x14, 0x00, 0x00, 0x00, 0x10, 0x00, 0x0c, 0x00, 
    0x0b, 0x00, 0x04, 0x00, 0x0e, 0x00, 0x00, 0x00, 0x1c, 0x00, 0x00, 0x00, 
    0x00, 0x00, 0x00, 0x08, 0x1c, 0x00, 0x00, 0x00, 0x20, 0x00, 0x00, 0x00, 
    0x0c, 0x00, 0x08, 0x00, 0x07, 0x00, 0x00, 0x00, 0x00, 0x00, 0x06, 0x00, 
    0x0c, 0x00, 0x00, 0x00, 0x00, 0x00, 0x01, 0x01, 0x01, 0x00, 0x00, 0x00, 
    0x09, 0x00, 0x00, 0x00, 0x03, 0x00, 0x00, 0x00, 0x00, 0x00, 0x00, 0x00, 
    0x07, 0x00, 0x00, 0x00, 0x06, 0x00, 0x00, 0x00, 0x01, 0x00, 0x00, 0x00, 
    0x0d, 0x00, 0x00, 0x00, 0x01, 0x00, 0x00, 0x00, 0x00, 0x00, 0x00, 0x00, 
    0x0e, 0x00, 0x00, 0x00, 0xa4, 0x05, 0x00, 0x00, 0x40, 0x05, 0x00, 0x00, 
    0xdc, 0x04, 0x00, 0x00, 0x84, 0x04, 0x00, 0x00, 0x2c, 0x04, 0x00, 0x00, 
    0xd4, 0x03, 0x00, 0x00, 0x80, 0x03, 0x00, 0x00, 0x08, 0x03, 0x00, 0x00, 
    0x80, 0x02, 0x00, 0x00, 0xf8, 0x01, 0x00, 0x00, 0x68, 0x01, 0x00, 0x00, 
    0xd8, 0x00, 0x00, 0x00, 0x60, 0x00, 0x00, 0x00, 0x04, 0x00, 0x00, 0x00, 
    0xaa, 0xfa, 0xff, 0xff, 0x00, 0x00, 0x00, 0x01, 0x14, 0x00, 0x00, 0x00, 
    0x1c, 0x00, 0x00, 0x00, 0x1c, 0x00, 0x00, 0x00, 0x0e, 0x00, 0x00, 0x00, 
    0x34, 0x00, 0x00, 0x00, 0x02, 0x00, 0x00, 0x00, 0xff, 0xff, 0xff, 0xff, 
    0x02, 0x00, 0x00, 0x00, 0x94, 0xfa, 0xff, 0xff, 0x19, 0x00, 0x00, 0x00, 
    0x53, 0x74, 0x61, 0x74, 0x65, 0x66, 0x75, 0x6c, 0x50, 0x61, 0x72, 0x74, 
    0x69, 0x74, 0x69, 0x6f, 0x6e, 0x65, 0x64, 0x43, 0x61, 0x6c, 0x6c, 0x3a, 
    0x30, 0x00, 0x00, 0x00, 0x02, 0x00, 0x00, 0x00, 0x01, 0x00, 0x00, 0x00, 
    0x02, 0x00, 0x00, 0x00, 0x02, 0xfb, 0xff, 0xff, 0x00, 0x00, 0x00, 0x01, 
    0x14, 0x00, 0x00, 0x00, 0x1c, 0x00, 0x00, 0x00, 0x1c, 0x00, 0x00, 0x00, 
    0x0d, 0x00, 0x00, 0x00, 0x50, 0x00, 0x00, 0x00, 0x02, 0x00, 0x00, 0x00, 
    0xff, 0xff, 0xff, 0xff, 0x02, 0x00, 0x00, 0x00, 0xec, 0xfa, 0xff, 0xff, 
    0x34, 0x00, 0x00, 0x00, 0x73, 0x65, 0x71, 0x75, 0x65, 0x6e, 0x74, 0x69, 
    0x61, 0x6c, 0x2f, 0x64, 0x65, 0x6e, 0x73, 0x65, 0x5f, 0x33, 0x2f, 0x4d, 
    0x61, 0x74, 0x4d, 0x75, 0x6c, 0x3b, 0x73, 0x65, 0x71, 0x75, 0x65, 0x6e, 
    0x74, 0x69, 0x61, 0x6c, 0x2f, 0x64, 0x65, 0x6e, 0x73, 0x65, 0x5f, 0x33, 
    0x2f, 0x42, 0x69, 0x61, 0x73, 0x41, 0x64, 0x64, 0x00, 0x00, 0x00, 0x00, 
    0x02, 0x00, 0x00, 0x00, 0x01, 0x00, 0x00, 0x00, 0x02, 0x00, 0x00, 0x00, 
    0x76, 0xfb, 0xff, 0xff, 0x00, 0x00, 0x00, 0x01, 0x14, 0x00, 0x00, 0x00, 
    0x1c, 0x00, 0x00, 0x00, 0x1c, 0x00, 0x00, 0x00, 0x0c, 0x00, 0x00, 0x00, 
    0x68, 0x00, 0x00, 0x00, 0x02, 0x00, 0x00, 0x00, 0xff, 0xff, 0xff, 0xff, 
    0x10, 0x00, 0x00, 0x00, 0x60, 0xfb, 0xff, 0xff, 0x4c, 0x00, 0x00, 0x00, 
    0x73, 0x65, 0x71, 0x75, 0x65, 0x6e, 0x74, 0x69, 0x61, 0x6c, 0x2f, 0x64, 
    0x65, 0x6e, 0x73, 0x65, 0x5f, 0x32, 0x2f, 0x4d, 0x61, 0x74, 0x4d, 0x75, 
    0x6c, 0x3b, 0x73, 0x65, 0x71, 0x75, 0x65, 0x6e, 0x74, 0x69, 0x61, 0x6c, 
    0x2f, 0x64, 0x65, 0x6e, 0x73, 0x65, 0x5f, 0x32, 0x2f, 0x52, 0x65, 0x6c, 
    0x75, 0x3b, 0x73, 0x65, 0x71, 0x75, 0x65, 0x6e, 0x74, 0x69, 0x61, 0x6c, 
    0x2f, 0x64, 0x65, 0x6e, 0x73, 0x65, 0x5f, 0x32, 0x2f, 0x42, 0x69, 0x61, 
    0x73, 0x41, 0x64, 0x64, 0x00, 0x00, 0x00, 0x00, 0x02, 0x00, 0x00, 0x00, 
    0x01, 0x00, 0x00, 0x00, 0x10, 0x00, 0x00, 0x00, 0x02, 0xfc, 0xff, 0xff, 
    0x00, 0x00, 0x00, 0x01, 0x14, 0x00, 0x00, 0x00, 0x1c, 0x00, 0x00, 0x00, 
    0x1c, 0x00, 0x00, 0x00, 0x0b, 0x00, 0x00, 0x00, 0x68, 0x00, 0x00, 0x00, 
    0x02, 0x00, 0x00, 0x00, 0xff, 0xff, 0xff, 0xff, 0x20, 0x00, 0x00, 0x00, 
    0xec, 0xfb, 0xff, 0xff, 0x4c, 0x00, 0x00, 0x00, 0x73, 0x65, 0x71, 0x75, 
    0x65, 0x6e, 0x74, 0x69, 0x61, 0x6c, 0x2f, 0x64, 0x65, 0x6e, 0x73, 0x65, 
    0x5f, 0x31, 0x2f, 0x4d, 0x61, 0x74, 0x4d, 0x75, 0x6c, 0x3b, 0x73, 0x65, 
    0x71, 0x75, 0x65, 0x6e, 0x74, 0x69, 0x61, 0x6c, 0x2f, 0x64, 0x65, 0x6e, 
    0x73, 0x65, 0x5f, 0x31, 0x2f, 0x52, 0x65, 0x6c, 0x75, 0x3b, 0x73, 0x65, 
    0x71, 0x75, 0x65, 0x6e, 0x74, 0x69, 0x61, 0x6c, 0x2f, 0x64, 0x65, 0x6e, 
    0x73, 0x65, 0x5f, 0x31, 0x2f, 0x42, 0x69, 0x61, 0x73, 0x41, 0x64, 0x64, 
    0x00, 0x00, 0x00, 0x00, 0x02, 0x00, 0x00, 0x00, 0x01, 0x00, 0x00, 0x00, 
    0x20, 0x00, 0x00, 0x00, 0x8e, 0xfc, 0xff, 0xff, 0x00, 0x00, 0x00, 0x01, 
    0x14, 0x00, 0x00, 0x00, 0x1c, 0x00, 0x00, 0x00, 0x1c, 0x00, 0x00, 0x00, 
    0x0a, 0x00, 0x00, 0x00, 0x60, 0x00, 0x00, 0x00, 0x02, 0x00, 0x00, 0x00, 
    0xff, 0xff, 0xff, 0xff, 0x40, 0x00, 0x00, 0x00, 0x78, 0xfc, 0xff, 0xff, 
    0x46, 0x00, 0x00, 0x00, 0x73, 0x65, 0x71, 0x75, 0x65, 0x6e, 0x74, 0x69, 
    0x61, 0x6c, 0x2f, 0x64, 0x65, 0x6e, 0x73, 0x65, 0x2f, 0x4d, 0x61, 0x74, 
    0x4d, 0x75, 0x6c, 0x3b, 0x73, 0x65, 0x71, 0x75, 0x65, 0x6e, 0x74, 0x69, 
    0x61, 0x6c, 0x2f, 0x64, 0x65, 0x6e, 0x73, 0x65, 0x2f, 0x52, 0x65, 0x6c, 
    0x75, 0x3b, 0x73, 0x65, 0x71, 0x75, 0x65, 0x6e, 0x74, 0x69, 0x61, 0x6c, 
    0x2f, 0x64, 0x65, 0x6e, 0x73, 0x65, 0x2f, 0x42, 0x69, 0x61, 0x73, 0x41, 
    0x64, 0x64, 0x00, 0x00, 0x02, 0x00, 0x00, 0x00, 0x01, 0x00, 0x00, 0x00, 
    0x40, 0x00, 0x00, 0x00, 0x92, 0xff, 0xff, 0xff, 0x00, 0x00, 0x00, 0x01, 
    0x14, 0x00, 0x00, 0x00, 0x34, 0x00, 0x00, 0x00, 0x09, 0x00, 0x00, 0x00, 
    0x00, 0x00, 0x00, 0x09, 0x48, 0x00, 0x00, 0x00, 0x7c, 0xff, 0xff, 0xff, 
    0x08, 0x00, 0x00, 0x00, 0x14, 0x00, 0x00, 0x00, 0x01, 0x00, 0x00, 0x00, 
    0x00, 0x00, 0x00, 0x00, 0x00, 0x00, 0x00, 0x00, 0x00, 0x00, 0x00, 0x00, 
    0x01, 0x00, 0x00, 0x00, 0xb8, 0xaa, 0x01, 0x3c, 0x19, 0x00, 0x00, 0x00, 
    0x73, 0x65, 0x71, 0x75, 0x65, 0x6e, 0x74, 0x69, 0x61, 0x6c, 0x2f, 0x64, 
    0x65, 0x6e, 0x73, 0x65, 0x5f, 0x31, 0x2f, 0x4d, 0x61, 0x74, 0x4d, 0x75, 
    0x6c, 0x00, 0x00, 0x00, 0x02, 0x00, 0x00, 0x00, 0x20, 0x00, 0x00, 0x00, 
    0x40, 0x00, 0x00, 0x00, 0x00, 0x00, 0x16, 0x00, 0x1c, 0x00, 0x18, 0x00, 
    0x17, 0x00, 0x10, 0x00, 0x0c, 0x00, 0x08, 0x00, 0x00, 0x00, 0x00, 0x00, 
    0x00, 0x00, 0x07, 0x00, 0x16, 0x00, 0x00, 0x00, 0x00, 0x00, 0x00, 0x01, 
    0x20, 0x00, 0x00, 0x00, 0x40, 0x00, 0x00, 0x00, 0x08, 0x00, 0x00, 0x00, 
    0x00, 0x00, 0x00, 0x09, 0x50, 0x00, 0x00, 0x00, 0x0c, 0x00, 0x0c, 0x00, 
    0x00, 0x00, 0x00, 0x00, 0x08, 0x00, 0x04, 0x00, 0x0c, 0x00, 0x00, 0x00, 
    0x08, 0x00, 0x00, 0x00, 0x14, 0x00, 0x00, 0x00, 0x01, 0x00, 0x00, 0x00, 
    0x00, 0x00, 0x00, 0x00, 0x00, 0x00, 0x00, 0x00, 0x00, 0x00, 0x00, 0x00, 
    0x01, 0x00, 0x00, 0x00, 0x54, 0x89, 0x2c, 0x3c, 0x17, 0x00, 0x00, 0x00, 
    0x73, 0x65, 0x71, 0x75, 0x65, 0x6e, 0x74, 0x69, 0x61, 0x6c, 0x2f, 0x64, 
    0x65, 0x6e, 0x73, 0x65, 0x2f, 0x4d, 0x61, 0x74, 0x4d, 0x75, 0x6c, 0x00, 
    0x02, 0x00, 0x00, 0x00, 0x40, 0x00, 0x00, 0x00, 0x26, 0x00, 0x00, 0x00, 
    0x6a, 0xfe, 0xff, 0xff, 0x00, 0x00, 0x00, 0x01, 0x10, 0x00, 0x00, 0x00, 
    0x10, 0x00, 0x00, 0x00, 0x07, 0x00, 0x00, 0x00, 0x34, 0x00, 0x00, 0x00, 
    0xe4, 0xfd, 0xff, 0xff, 0x27, 0x00, 0x00, 0x00, 0x73, 0x65, 0x71, 0x75, 
    0x65, 0x6e, 0x74, 0x69, 0x61, 0x6c, 0x2f, 0x64, 0x65, 0x6e, 0x73, 0x65, 
    0x2f, 0x42, 0x69, 0x61, 0x73, 0x41, 0x64, 0x64, 0x2f, 0x52, 0x65, 0x61, 
    0x64, 0x56, 0x61, 0x72, 0x69, 0x61, 0x62, 0x6c, 0x65, 0x4f, 0x70, 0x00, 
    0x01, 0x00, 0x00, 0x00, 0x40, 0x00, 0x00, 0x00, 0xba, 0xfe, 0xff, 0xff, 
    0x00, 0x00, 0x00, 0x01, 0x10, 0x00, 0x00, 0x00, 0x10, 0x00, 0x00, 0x00, 
    0x06, 0x00, 0x00, 0x00, 0x38, 0x00, 0x00, 0x00, 0x34, 0xfe, 0xff, 0xff, 
    0x29, 0x00, 0x00, 0x00, 0x73, 0x65, 0x71, 0x75, 0x65, 0x6e, 0x74, 0x69, 
    0x61, 0x6c, 0x2f, 0x64, 0x65, 0x6e, 0x73, 0x65, 0x5f, 0x33, 0x2f, 0x42, 
    0x69, 0x61, 0x73, 0x41, 0x64, 0x64, 0x2f, 0x52, 0x65, 0x61, 0x64, 0x56, 
    0x61, 0x72, 0x69, 0x61, 0x62, 0x6c, 0x65, 0x4f, 0x70, 0x00, 0x00, 0x00, 
    0x01, 0x00, 0x00, 0x00, 0x02, 0x00, 0x00, 0x00, 0x0e, 0xff, 0xff, 0xff, 
    0x00, 0x00, 0x00, 0x01, 0x10, 0x00, 0x00, 0x00, 0x10, 0x00, 0x00, 0x00, 
    0x05, 0x00, 0x00, 0x00, 0x38, 0x00, 0x00, 0x00, 0x88, 0xfe, 0xff, 0xff, 
    0x29, 0x00, 0x00, 0x00, 0x73, 0x65, 0x71, 0x75, 0x65, 0x6e, 0x74, 0x69, 
    0x61, 0x6c, 0x2f, 0x64, 0x65, 0x6e, 0x73, 0x65, 0x5f, 0x32, 0x2f, 0x42, 
    0x69, 0x61, 0x73, 0x41, 0x64, 0x64, 0x2f, 0x52, 0x65, 0x61, 0x64, 0x56, 
    0x61, 0x72, 0x69, 0x61, 0x62, 0x6c, 0x65, 0x4f, 0x70, 0x00, 0x00, 0x00, 
    0x01, 0x00, 0x00, 0x00, 0x10, 0x00, 0x00, 0x00, 0x62, 0xff, 0xff, 0xff, 
    0x00, 0x00, 0x00, 0x01, 0x10, 0x00, 0x00, 0x00, 0x10, 0x00, 0x00, 0x00, 
    0x04, 0x00, 0x00, 0x00, 0x38, 0x00, 0x00, 0x00, 0xdc, 0xfe, 0xff, 0xff, 
    0x29, 0x00, 0x00, 0x00, 0x73, 0x65, 0x71, 0x75, 0x65, 0x6e, 0x74, 0x69, 
    0x61, 0x6c, 0x2f, 0x64, 0x65, 0x6e, 0x73, 0x65, 0x5f, 0x31, 0x2f, 0x42, 
    0x69, 0x61, 0x73, 0x41, 0x64, 0x64, 0x2f, 0x52, 0x65, 0x61, 0x64, 0x56, 
    0x61, 0x72, 0x69, 0x61, 0x62, 0x6c, 0x65, 0x4f, 0x70, 0x00, 0x00, 0x00, 
    0x01, 0x00, 0x00, 0x00, 0x20, 0x00, 0x00, 0x00, 0xb6, 0xff, 0xff, 0xff, 
    0x00, 0x00, 0x00, 0x01, 0x10, 0x00, 0x00, 0x00, 0x10, 0x00, 0x00, 0x00, 
    0x03, 0x00, 0x00, 0x00, 0x28, 0x00, 0x00, 0x00, 0x30, 0xff, 0xff, 0xff, 
    0x19, 0x00, 0x00, 0x00, 0x73, 0x65, 0x71, 0x75, 0x65, 0x6e, 0x74, 0x69, 
    0x61, 0x6c, 0x2f, 0x64, 0x65, 0x6e, 0x73, 0x65, 0x5f, 0x32, 0x2f, 0x4d, 
    0x61, 0x74, 0x4d, 0x75, 0x6c, 0x00, 0x00, 0x00, 0x02, 0x00, 0x00, 0x00, 
    0x10, 0x00, 0x00, 0x00, 0x20, 0x00, 0x00, 0x00, 0x00, 0x00, 0x16, 0x00, 
    0x18, 0x00, 0x14, 0x00, 0x00, 0x00, 0x10, 0x00, 0x0c, 0x00, 0x08, 0x00, 
    0x00, 0x00, 0x00, 0x00, 0x00, 0x00, 0x07, 0x00, 0x16, 0x00, 0x00, 0x00, 
    0x00, 0x00, 0x00, 0x01, 0x10, 0x00, 0x00, 0x00, 0x10, 0x00, 0x00, 0x00, 
    0x02, 0x00, 0x00, 0x00, 0x28, 0x00, 0x00, 0x00, 0x90, 0xff, 0xff, 0xff, 
    0x19, 0x00, 0x00, 0x00, 0x73, 0x65, 0x71, 0x75, 0x65, 0x6e, 0x74, 0x69, 
    0x61, 0x6c, 0x2f, 0x64, 0x65, 0x6e, 0x73, 0x65, 0x5f, 0x33, 0x2f, 0x4d, 
    0x61, 0x74, 0x4d, 0x75, 0x6c, 0x00, 0x00, 0x00, 0x02, 0x00, 0x00, 0x00, 
    0x02, 0x00, 0x00, 0x00, 0x10, 0x00, 0x00, 0x00, 0x00, 0x00, 0x16, 0x00, 
    0x1c, 0x00, 0x18, 0x00, 0x00, 0x00, 0x14, 0x00, 0x10, 0x00, 0x0c, 0x00, 
    0x00, 0x00, 0x00, 0x00, 0x08, 0x00, 0x07, 0x00, 0x16, 0x00, 0x00, 0x00, 
    0x00, 0x00, 0x00, 0x01, 0x14, 0x00, 0x00, 0x00, 0x20, 0x00, 0x00, 0x00, 
    0x20, 0x00, 0x00, 0x00, 0x01, 0x00, 0x00, 0x00, 0x3c, 0x00, 0x00, 0x00, 
    0x02, 0x00, 0x00, 0x00, 0xff, 0xff, 0xff, 0xff, 0x26, 0x00, 0x00, 0x00, 
    0x04, 0x00, 0x04, 0x00, 0x04, 0x00, 0x00, 0x00, 0x1d, 0x00, 0x00, 0x00, 
    0x73, 0x65, 0x72, 0x76, 0x69, 0x6e, 0x67, 0x5f, 0x64, 0x65, 0x66, 0x61, 
    0x75, 0x6c, 0x74, 0x5f, 0x64, 0x65, 0x6e, 0x73, 0x65, 0x5f, 0x69, 0x6e, 
    0x70, 0x75, 0x74, 0x3a, 0x30, 0x00, 0x00, 0x00, 0x02, 0x00, 0x00, 0x00, 
    0x01, 0x00, 0x00, 0x00, 0x26, 0x00, 0x00, 0x00, 0x02, 0x00, 0x00, 0x00, 
    0x2c, 0x00, 0x00, 0x00, 0x10, 0x00, 0x00, 0x00, 0x0c, 0x00, 0x0c, 0x00, 
    0x0b, 0x00, 0x00, 0x00, 0x00, 0x00, 0x04, 0x00, 0x0c, 0x00, 0x00, 0x00, 
    0x19, 0x00, 0x00, 0x00, 0x00, 0x00, 0x00, 0x19, 0x0c, 0x00, 0x10, 0x00, 
    0x0f, 0x00, 0x00, 0x00, 0x08, 0x00, 0x04, 0x00, 0x0c, 0x00, 0x00, 0x00, 
    0x09, 0x00, 0x00, 0x00, 0x09, 0x00, 0x00, 0x00, 0x00, 0x00, 0x00, 0x09
};

#endif //NETWORK_MODEL_H